{
  "version": "1.0",
  "truncation": {
    "direction": "Right",
    "max_length": 512,
    "strategy": "LongestFirst",
    "stride": 0
  },
  "padding": null,
  "added_tokens": [
    {
      "id": 0,
      "content": "<unk>",
      "single_word": false,
      "lstrip": false,
      "rstrip": false,
      "normalized": true,
      "special": true
    },
    {
      "id": 1,
      "content": "<s>",
      "single_word": false,
      "lstrip": false,
      "rstrip": false,
      "normalized": false,
      "special": true
    },
    {
      "id": 2,
      "content": "</s>",
      "single_word": false,
      "lstrip": false,
      "rstrip": false,
      "normalized": false,
      "special": true
    }
  ],
  "normalizer": null,
  "pre_tokenizer": null,
  "post_processor": {
    "type": "TemplateProcessing",
    "single": [
      {
        "SpecialToken": {
          "id": "<s>",
          "type_id": 0
        }
      },
      {
        "Sequence": {
          "id": "A",
          "type_id": 0
        }
      }
    ],
    "pair": [
      {
        "SpecialToken": {
          "id": "<s>",
          "type_id": 0
        }
      },
      {
        "Sequence": {
          "id": "A",
          "type_id": 0
        }
      },
      {
        "SpecialToken": {
          "id": "<s>",
          "type_id": 1
        }
      },
      {
        "Sequence": {
          "id": "B",
          "type_id": 1
        }
      }
    ],
    "special_tokens": {
      "<s>": {
        "id": "<s>",
        "ids": [
          1
        ],
        "tokens": [
          "<s>"
        ]
      }
    }
  },
  "decoder": null,
  "model": {
    "type": "Unigram",
    "unk_id": 0,
    "vocab": [
      [
        "<unk>",
        0.0
      ],
      [
        "<s>",
        0.0
      ],
      [
        "</s>",
        0.0
      ],
      [
        "<0x00>",
        0.0
      ],
      [
        "<0x01>",
        0.0
      ],
      [
        "<0x02>",
        0.0
      ],
      [
        "<0x03>",
        0.0
      ],
      [
        "<0x04>",
        0.0
      ],
      [
        "<0x05>",
        0.0
      ],
      [
        "<0x06>",
        0.0
      ],
      [
        "<0x07>",
        0.0
      ],
      [
        "<0x08>",
        0.0
      ],
      [
        "<0x09>",
        0.0
      ],
      [
        "<0x0A>",
        0.0
      ],
      [
        "<0x0B>",
        0.0
      ],
      [
        "<0x0C>",
        0.0
      ],
      [
        "<0x0D>",
        0.0
      ],
      [
        "<0x0E>",
        0.0
      ],
      [
        "<0x0F>",
        0.0
      ],
      [
        "<0x10>",
        0.0
      ],
      [
        "<0x11>",
        0.0
      ],
      [
        "<0x12>",
        0.0
      ],
      [
        "<0x13>",
        0.0
      ],
      [
        "<0x14>",
        0.0
      ],
      [
        "<0x15>",
        0.0
      ],
      [
        "<0x16>",
        0.0
      ],
      [
        "<0x17>",
        0.0
      ],
      [
        "<0x18>",
        0.0
      ],
      [
        "<0x19>",
        0.0
      ],
      [
        "<0x1A>",
        0.0
      ],
      [
        "<0x1B>",
        0.0
      ],
      [
        "<0x1C>",
        0.0
      ],
      [
        "<0x1D>",
        0.0
      ],
      [
        "<0x1E>",
        0.0
      ],
      [
        "<0x1F>",
        0.0
      ],
      [
        "<0x20>",
        0.0
      ],
      [
        "<0x21>",
        0.0
      ],
      [
        "<0x22>",
        0.0
      ],
      [
        "<0x23>",
        0.0
      ],
      [
        "<0x24>",
        0.0
      ],
      [
        "<0x25>",
        0.0
      ],
      [
        "<0x26>",
        0.0
      ],
      [
        "<0x27>",
        0.0
      ],
      [
        "<0x28>",
        0.0
      ],
      [
        "<0x29>",
        0.0
      ],
      [
        "<0x2A>",
        0.0
      ],
      [
        "<0x2B>",
        0.0
      ],
      [
        "<0x2C>",
        0.0
      ],
      [
        "<0x2D>",
        0.0
      ],
      [
        "<0x2E>",
        0.0
      ],
      [
        "<0x2F>",
        0.0
      ],
      [
        "<0x30>",
        0.0
      ],
      [
        "<0x31>",
        0.0
      ],
      [
        "<0x32>",
        0.0
      ],
      [
        "<0x33>",
        0.0
      ],
      [
        "<0x34>",
        0.0
      ],
      [
        "<0x35>",
        0.0
      ],
      [
        "<0x36>",
        0.0
      ],
      [
        "<0x37>",
        0.0
      ],
      [
        "<0x38>",
        0.0
      ],
      [
        "<0x39>",
        0.0
      ],
      [
        "<0x3A>",
        0.0
      ],
      [
        "<0x3B>",
        0.0
      ],
      [
        "<0x3C>",
        0.0
      ],
      [
        "<0x3D>",
        0.0
      ],
      [
        "<0x3E>",
        0.0
      ],
      [
        "<0x3F>",
        0.0
      ],
      [
        "<0x40>",
        0.0
      ],
      [
        "<0x41>",
        0.0
      ],
      [
        "<0x42>",
        0.0
      ],
      [
        "<0x43>",
        0.0
      ],
      [
        "<0x44>",
        0.0
      ],
      [
        "<0x45>",
        0.0
      ],
      [
        "<0x46>",
        0.0
      ],
      [
        "<0x47>",
        0.0
      ],
      [
        "<0x48>",
        0.0
      ],
      [
        "<0x49>",
        0.0
      ],
      [
        "<0x4A>",
        0.0
      ],
      [
        "<0x4B>",
        0.0
      ],
      [
        "<0x4C>",
        0.0
      ],
      [
        "<0x4D>",
        0.0
      ],
      [
        "<0x4E>",
        0.0
      ],
      [
        "<0x4F>",
        0.0
      ],
      [
        "<0x50>",
        0.0
      ],
      [
        "<0x51>",
        0.0
      ],
      [
        "<0x52>",
        0.0
      ],
      [
        "<0x53>",
        0.0
      ],
      [
        "<0x54>",
        0.0
      ],
      [
        "<0x55>",
        0.0
      ],
      [
        "<0x56>",
        0.0
      ],
      [
        "<0x57>",
        0.0
      ],
      [
        "<0x58>",
        0.0
      ],
      [
        "<0x59>",
        0.0
      ],
      [
        "<0x5A>",
        0.0
      ],
      [
        "<0x5B>",
        0.0
      ],
      [
        "<0x5C>",
        0.0
      ],
      [
        "<0x5D>",
        0.0
      ],
      [
        "<0x5E>",
        0.0
      ],
      [
        "<0x5F>",
        0.0
      ],
      [
        "<0x60>",
        0.0
      ],
      [
        "<0x61>",
        0.0
      ],
      [
        "<0x62>",
        0.0
      ],
      [
        "<0x63>",
        0.0
      ],
      [
        "<0x64>",
        0.0
      ],
      [
        "<0x65>",
        0.0
      ],
      [
        "<0x66>",
        0.0
      ],
      [
        "<0x67>",
        0.0
      ],
      [
        "<0x68>",
        0.0
      ],
      [
        "<0x69>",
        0.0
      ],
      [
        "<0x6A>",
        0.0
      ],
      [
        "<0x6B>",
        0.0
      ],
      [
        "<0x6C>",
        0.0
      ],
      [
        "<0x6D>",
        0.0
      ],
      [
        "<0x6E>",
        0.0
      ],
      [
        "<0x6F>",
        0.0
      ],
      [
        "<0x70>",
        0.0
      ],
      [
        "<0x71>",
        0.0
      ],
      [
        "<0x72>",
        0.0
      ],
      [
        "<0x73>",
        0.0
      ],
      [
        "<0x74>",
        0.0
      ],
      [
        "<0x75>",
        0.0
      ],
      [
        "<0x76>",
        0.0
      ],
      [
        "<0x77>",
        0.0
      ],
      [
        "<0x78>",
        0.0
      ],
      [
        "<0x79>",
        0.0
      ],
      [
        "<0x7A>",
        0.0
      ],
      [
        "<0x7B>",
        0.0
      ],
      [
        "<0x7C>",
        0.0
      ],
      [
        "<0x7D>",
        0.0
      ],
      [
        "<0x7E>",
        0.0
      ],
      [
        "<0x7F>",
        0.0
      ],
      [
        "<0x80>",
        0.0
      ],
      [
        "<0x81>",
        0.0
      ],
      [
        "<0x82>",
        0.0
      ],
      [
        "<0x83>",
        0.0
      ],
      [
        "<0x84>",
        0.0
      ],
      [
        "<0x85>",
        0.0
      ],
      [
        "<0x86>",
        0.0
      ],
      [
        "<0x87>",
        0.0
      ],
      [
        "<0x88>",
        0.0
      ],
      [
        "<0x89>",
        0.0
      ],
      [
        "<0x8A>",
        0.0
      ],
      [
        "<0x8B>",
        0.0
      ],
      [
        "<0x8C>",
        0.0
      ],
      [
        "<0x8D>",
        0.0
      ],
      [
        "<0x8E>",
        0.0
      ],
      [
        "<0x8F>",
        0.0
      ],
      [
        "<0x90>",
        0.0
      ],
      [
        "<0x91>",
        0.0
      ],
      [
        "<0x92>",
        0.0
      ],
      [
        "<0x93>",
        0.0
      ],
      [
        "<0x94>",
        0.0
      ],
      [
        "<0x95>",
        0.0
      ],
      [
        "<0x96>",
        0.0
      ],
      [
        "<0x97>",
        0.0
      ],
      [
        "<0x98>",
        0.0
      ],
      [
        "<0x99>",
        0.0
      ],
      [
        "<0x9A>",
        0.0
      ],
      [
        "<0x9B>",
        0.0
      ],
      [
        "<0x9C>",
        0.0
      ],
      [
        "<0x9D>",
        0.0
      ],
      [
        "<0x9E>",
        0.0
      ],
      [
        "<0x9F>",
        0.0
      ],
      [
        "<0xA0>",
        0.0
      ],
      [
        "<0xA1>",
        0.0
      ],
      [
        "<0xA2>",
        0.0
      ],
      [
        "<0xA3>",
        0.0
      ],
      [
        "<0xA4>",
        0.0
      ],
      [
        "<0xA5>",
        0.0
      ],
      [
        "<0xA6>",
        0.0
      ],
      [
        "<0xA7>",
        0.0
      ],
      [
        "<0xA8>",
        0.0
      ],
      [
        "<0xA9>",
        0.0
      ],
      [
        "<0xAA>",
        0.0
      ],
      [
        "<0xAB>",
        0.0
      ],
      [
        "<0xAC>",
        0.0
      ],
      [
        "<0xAD>",
        0.0
      ],
      [
        "<0xAE>",
        0.0
      ],
      [
        "<0xAF>",
        0.0
      ],
      [
        "<0xB0>",
        0.0
      ],
      [
        "<0xB1>",
        0.0
      ],
      [
        "<0xB2>",
        0.0
      ],
      [
        "<0xB3>",
        0.0
      ],
      [
        "<0xB4>",
        0.0
      ],
      [
        "<0xB5>",
        0.0
      ],
      [
        "<0xB6>",
        0.0
      ],
      [
        "<0xB7>",
        0.0
      ],
      [
        "<0xB8>",
        0.0
      ],
      [
        "<0xB9>",
        0.0
      ],
      [
        "<0xBA>",
        0.0
      ],
      [
        "<0xBB>",
        0.0
      ],
      [
        "<0xBC>",
        0.0
      ],
      [
        "<0xBD>",
        0.0
      ],
      [
        "<0xBE>",
        0.0
      ],
      [
        "<0xBF>",
        0.0
      ],
      [
        "<0xC0>",
        0.0
      ],
      [
        "<0xC1>",
        0.0
      ],
      [
        "<0xC2>",
        0.0
      ],
      [
        "<0xC3>",
        0.0
      ],
      [
        "<0xC4>",
        0.0
      ],
      [
        "<0xC5>",
        0.0
      ],
      [
        "<0xC6>",
        0.0
      ],
      [
        "<0xC7>",
        0.0
      ],
      [
        "<0xC8>",
        0.0
      ],
      [
        "<0xC9>",
        0.0
      ],
      [
        "<0xCA>",
        0.0
      ],
      [
        "<0xCB>",
        0.0
      ],
      [
        "<0xCC>",
        0.0
      ],
      [
        "<0xCD>",
        0.0
      ],
      [
        "<0xCE>",
        0.0
      ],
      [
        "<0xCF>",
        0.0
      ],
      [
        "<0xD0>",
        0.0
      ],
      [
        "<0xD1>",
        0.0
      ],
      [
        "<0xD2>",
        0.0
      ],
      [
        "<0xD3>",
        0.0
      ],
      [
        "<0xD4>",
        0.0
      ],
      [
        "<0xD5>",
        0.0
      ],
      [
        "<0xD6>",
        0.0
      ],
      [
        "<0xD7>",
        0.0
      ],
      [
        "<0xD8>",
        0.0
      ],
      [
        "<0xD9>",
        0.0
      ],
      [
        "<0xDA>",
        0.0
      ],
      [
        "<0xDB>",
        0.0
      ],
      [
        "<0xDC>",
        0.0
      ],
      [
        "<0xDD>",
        0.0
      ],
      [
        "<0xDE>",
        0.0
      ],
      [
        "<0xDF>",
        0.0
      ],
      [
        "<0xE0>",
        0.0
      ],
      [
        "<0xE1>",
        0.0
      ],
      [
        "<0xE2>",
        0.0
      ],
      [
        "<0xE3>",
        0.0
      ],
      [
        "<0xE4>",
        0.0
      ],
      [
        "<0xE5>",
        0.0
      ],
      [
        "<0xE6>",
        0.0
      ],
      [
        "<0xE7>",
        0.0
      ],
      [
        "<0xE8>",
        0.0
      ],
      [
        "<0xE9>",
        0.0
      ],
      [
        "<0xEA>",
        0.0
      ],
      [
        "<0xEB>",
        0.0
      ],
      [
        "<0xEC>",
        0.0
      ],
      [
        "<0xED>",
        0.0
      ],
      [
        "<0xEE>",
        0.0
      ],
      [
        "<0xEF>",
        0.0
      ],
      [
        "<0xF0>",
        0.0
      ],
      [
        "<0xF1>",
        0.0
      ],
      [
        "<0xF2>",
        0.0
      ],
      [
        "<0xF3>",
        0.0
      ],
      [
        "<0xF4>",
        0.0
      ],
      [
        "<0xF5>",
        0.0
      ],
      [
        "<0xF6>",
        0.0
      ],
      [
        "<0xF7>",
        0.0
      ],
      [
        "<0xF8>",
        0.0
      ],
      [
        "<0xF9>",
        0.0
      ],
      [
        "<0xFA>",
        0.0
      ],
      [
        "<0xFB>",
        0.0
      ],
      [
        "<0xFC>",
        0.0
      ],
      [
        "<0xFD>",
        0.0
      ],
      [
        "<0xFE>",
        0.0
      ],
      [
        "<0xFF>",
        0.0
      ],
      [
        "▁t",
        -0.0
      ],
      [
        "▁a",
        -1.0
      ],
      [
        "in",
        -2.0
      ],
      [
        "he",
        -3.0
      ],
      [
        "▁▁",
        -4.0
      ],
      [
        "re",
        -5.0
      ],
      [
        "on",
        -6.0
      ],
      [
        "er",
        -7.0
      ],
      [
        "▁s",
        -8.0
      ],
      [
        "▁the",
        -9.0
      ],
      [
        "at",
        -10.0
      ],
      [
        "or",
        -11.0
      ],
      [
        "en",
        -12.0
      ],
      [
        "▁w",
        -13.0
      ],
      [
        "▁c",
        -14.0
      ],
      [
        "ou",
        -15.0
      ],
      [
        "it",
        -16.0
      ],
      [
        "es",
        -17.0
      ],
      [
        "is",
        -18.0
      ],
      [
        "an",
        -19.0
      ],
      [
        "▁f",
        -20.0
      ],
      [
        "ing",
        -21.0
      ],
      [
        "▁b",
        -22.0
      ],
      [
        "▁p",
        -23.0
      ],
      [
        "▁▁▁▁",
        -24.0
      ],
      [
        "al",
        -25.0
      ],
      [
        "▁o",
        -26.0
      ],
      [
        "ed",
        -27.0
      ],
      [
        "nd",
        -28.0
      ],
      [
        "ar",
        -29.0
      ],
      [
        "▁m",
        -30.0
      ],
      [
        "▁to",
        -31.0
      ],
      [
        "▁d",
        -32.0
      ],
      [
        "le",
        -33.0
      ],
      [
        "▁in",
        -34.0
      ],
      [
        "ic",
        -35.0
      ],
      [
        "▁and",
        -36.0
      ],
      [
        "▁of",
        -37.0
      ],
      [
        "ion",
        -38.0
      ],
      [
        "as",
        -39.0
      ],
      [
        "om",
        -40.0
      ],
      [
        "▁h",
        -41.0
      ],
      [
        "▁th",
        -42.0
      ],
      [
        "ent",
        -43.0
      ],
      [
        "il",
        -44.0
      ],
      [
        "st",
        -45.0
      ],
      [
        "et",
        -46.0
      ],
      [
        "▁I",
        -47.0
      ],
      [
        "▁l",
        -48.0
      ],
      [
        "▁T",
        -49.0
      ],
      [
        "ro",
        -50.0
      ],
      [
        "el",
        -51.0
      ],
      [
        "▁n",
        -52.0
      ],
      [
        "ct",
        -53.0
      ],
      [
        "▁re",
        -54.0
      ],
      [
        "▁S",
        -55.0
      ],
      [
        "▁g",
        -56.0
      ],
      [
        "▁e",
        -57.0
      ],
      [
        "▁y",
        -58.0
      ],
      [
        "▁A",
        -59.0
      ],
      [
        "ve",
        -60.0
      ],
      [
        "id",
        -61.0
      ],
      [
        "ot",
        -62.0
      ],
      [
        "▁C",
        -63.0
      ],
      [
        "am",
        -64.0
      ],
      [
        "▁▁▁▁▁▁▁▁",
        -65.0
      ],
      [
        "▁is",
        -66.0
      ],
      [
        "im",
        -67.0
      ],
      [
        "ol",
        -68.0
      ],
      [
        "ac",
        -69.0
      ],
      [
        "ad",
        -70.0
      ],
      [
        "ay",
        -71.0
      ],
      [
        "ow",
        -72.0
      ],
      [
        "us",
        -73.0
      ],
      [
        "▁you",
        -74.0
      ],
      [
        "▁for",
        -75.0
      ],
      [
        "ig",
        -76.0
      ],
      [
        "ut",
        -77.0
      ],
      [
        "▁on",
        -78.0
      ],
      [
        "ly",
        -79.0
      ],
      [
        "▁be",
        -80.0
      ],
      [
        "ver",
        -81.0
      ],
      [
        "ur",
        -82.0
      ],
      [
        "▁M",
        -83.0
      ],
      [
        "ation",
        -84.0
      ],
      [
        "▁st",
        -85.0
      ],
      [
        "▁P",
        -86.0
      ],
      [
        "ith",
        -87.0
      ],
      [
        "▁that",
        -88.0
      ],
      [
        "▁B",
        -89.0
      ],
      [
        "ch",
        -90.0
      ],
      [
        "ce",
        -91.0
      ],
      [
        "ul",
        -92.0
      ],
      [
        "ir",
        -93.0
      ],
      [
        "▁(",
        -94.0
      ],
      [
        "se",
        -95.0
      ],
      [
        "if",
        -96.0
      ],
      [
        "un",
        -97.0
      ],
      [
        "▁with",
        -98.0
      ],
      [
        "▁it",
        -99.0
      ],
      [
        "▁W",
        -100.0
      ],
      [
        "ag",
        -101.0
      ],
      [
        "od",
        -102.0
      ],
      [
        "ter",
        -103.0
      ],
      [
        "▁he",
        -104.0
      ],
      [
        "▁The",
        -105.0
      ],
      [
        "▁D",
        -106.0
      ],
      [
        "▁-",
        -107.0
      ],
      [
        "▁H",
        -108.0
      ],
      [
        "▁F",
        -109.0
      ],
      [
        "▁al",
        -110.0
      ],
      [
        "em",
        -111.0
      ],
      [
        "▁an",
        -112.0
      ],
      [
        "▁as",
        -113.0
      ],
      [
        "▁R",
        -114.0
      ],
      [
        "out",
        -115.0
      ],
      [
        "ab",
        -116.0
      ],
      [
        "▁con",
        -117.0
      ],
      [
        "ill",
        -118.0
      ],
      [
        "▁wh",
        -119.0
      ],
      [
        "ri",
        -120.0
      ],
      [
        "ate",
        -121.0
      ],
      [
        "ers",
        -122.0
      ],
      [
        "ke",
        -123.0
      ],
      [
        "est",
        -124.0
      ],
      [
        "pp",
        -125.0
      ],
      [
        "▁L",
        -126.0
      ],
      [
        "▁pro",
        -127.0
      ],
      [
        "ra",
        -128.0
      ],
      [
        "▁v",
        -129.0
      ],
      [
        "▁we",
        -130.0
      ],
      [
        "ess",
        -131.0
      ],
      [
        "um",
        -132.0
      ],
      [
        "▁are",
        -133.0
      ],
      [
        "qu",
        -134.0
      ],
      [
        "ew",
        -135.0
      ],
      [
        "ist",
        -136.0
      ],
      [
        "ore",
        -137.0
      ],
      [
        "ort",
        -138.0
      ],
      [
        "her",
        -139.0
      ],
      [
        "our",
        -140.0
      ],
      [
        "ht",
        -141.0
      ],
      [
        "op",
        -142.0
      ],
      [
        "and",
        -143.0
      ],
      [
        "▁com",
        -144.0
      ],
      [
        "▁N",
        -145.0
      ],
      [
        "▁E",
        -146.0
      ],
      [
        "▁ha",
        -147.0
      ],
      [
        "▁G",
        -148.0
      ],
      [
        "▁or",
        -149.0
      ],
      [
        "ld",
        -150.0
      ],
      [
        "▁at",
        -151.0
      ],
      [
        "▁de",
        -152.0
      ],
      [
        "ect",
        -153.0
      ],
      [
        "oc",
        -154.0
      ],
      [
        "rom",
        -155.0
      ],
      [
        "res",
        -156.0
      ],
      [
        "▁ex",
        -157.0
      ],
      [
        "os",
        -158.0
      ],
      [
        "th",
        -159.0
      ],
      [
        "▁=",
        -160.0
      ],
      [
        "▁this",
        -161.0
      ],
      [
        "▁O",
        -162.0
      ],
      [
        "▁r",
        -163.0
      ],
      [
        "ment",
        -164.0
      ],
      [
        "ant",
        -165.0
      ],
      [
        "▁was",
        -166.0
      ],
      [
        "nt",
        -167.0
      ],
      [
        "ity",
        -168.0
      ],
      [
        "▁se",
        -169.0
      ],
      [
        "end",
        -170.0
      ],
      [
        "art",
        -171.0
      ],
      [
        "▁\"",
        -172.0
      ],
      [
        "ain",
        -173.0
      ],
      [
        "ust",
        -174.0
      ],
      [
        "ight",
        -175.0
      ],
      [
        "▁have",
        -176.0
      ],
      [
        "up",
        -177.0
      ],
      [
        "▁not",
        -178.0
      ],
      [
        "▁us",
        -179.0
      ],
      [
        "iv",
        -180.0
      ],
      [
        "▁from",
        -181.0
      ],
      [
        ");",
        -182.0
      ],
      [
        "ive",
        -183.0
      ],
      [
        "▁by",
        -184.0
      ],
      [
        "▁sh",
        -185.0
      ],
      [
        "▁your",
        -186.0
      ],
      [
        "all",
        -187.0
      ],
      [
        "ure",
        -188.0
      ],
      [
        "pt",
        -189.0
      ],
      [
        "ies",
        -190.0
      ],
      [
        "▁ch",
        -191.0
      ],
      [
        "pe",
        -192.0
      ],
      [
        "ub",
        -193.0
      ],
      [
        "▁{",
        -194.0
      ],
      [
        "▁can",
        -195.0
      ],
      [
        "ack",
        -196.0
      ],
      [
        "ame",
        -197.0
      ],
      [
        "ine",
        -198.0
      ],
      [
        "oo",
        -199.0
      ],
      [
        "▁J",
        -200.0
      ],
      [
        "ard",
        -201.0
      ],
      [
        "ud",
        -202.0
      ],
      [
        "ould",
        -203.0
      ],
      [
        "ue",
        -204.0
      ],
      [
        "▁le",
        -205.0
      ],
      [
        "ost",
        -206.0
      ],
      [
        "ome",
        -207.0
      ],
      [
        "▁j",
        -208.0
      ],
      [
        "age",
        -209.0
      ],
      [
        "ell",
        -210.0
      ],
      [
        "ial",
        -211.0
      ],
      [
        "te",
        -212.0
      ],
      [
        "pl",
        -213.0
      ],
      [
        "ge",
        -214.0
      ],
      [
        "og",
        -215.0
      ],
      [
        "▁ab",
        -216.0
      ],
      [
        "red",
        -217.0
      ],
      [
        "▁will",
        -218.0
      ],
      [
        "▁ne",
        -219.0
      ],
      [
        "rou",
        -220.0
      ],
      [
        "▁k",
        -221.0
      ],
      [
        "ide",
        -222.0
      ],
      [
        "▁}",
        -223.0
      ],
      [
        "▁Th",
        -224.0
      ],
      [
        "ak",
        -225.0
      ],
      [
        "▁pl",
        -226.0
      ],
      [
        "ff",
        -227.0
      ],
      [
        "ast",
        -228.0
      ],
      [
        "▁all",
        -229.0
      ],
      [
        "iz",
        -230.0
      ],
      [
        "ass",
        -231.0
      ],
      [
        "ice",
        -232.0
      ],
      [
        "ction",
        -233.0
      ],
      [
        "ind",
        -234.0
      ],
      [
        "ap",
        -235.0
      ],
      [
        "▁do",
        -236.0
      ],
      [
        "▁wor",
        -237.0
      ],
      [
        "▁U",
        -238.0
      ],
      [
        "▁▁▁▁▁▁▁▁▁▁▁▁",
        -239.0
      ],
      [
        "▁cl",
        -240.0
      ],
      [
        "able",
        -241.0
      ],
      [
        "▁In",
        -242.0
      ],
      [
        "ear",
        -243.0
      ],
      [
        "▁im",
        -244.0
      ],
      [
        "ally",
        -245.0
      ],
      [
        "▁tr",
        -246.0
      ],
      [
        "▁<",
        -247.0
      ],
      [
        "▁go",
        -248.0
      ],
      [
        "▁me",
        -249.0
      ],
      [
        "▁$",
        -250.0
      ],
      [
        "▁but",
        -251.0
      ],
      [
        "▁whe",
        -252.0
      ],
      [
        "one",
        -253.0
      ],
      [
        "are",
        -254.0
      ],
      [
        "ip",
        -255.0
      ],
      [
        "ook",
        -256.0
      ],
      [
        "▁su",
        -257.0
      ],
      [
        "ime",
        -258.0
      ],
      [
        "▁ad",
        -259.0
      ],
      [
        "cl",
        -260.0
      ],
      [
        "per",
        -261.0
      ],
      [
        "orm",
        -262.0
      ],
      [
        "▁out",
        -263.0
      ],
      [
        "ult",
        -264.0
      ],
      [
        "▁has",
        -265.0
      ],
      [
        "ite",
        -266.0
      ],
      [
        "ich",
        -267.0
      ],
      [
        "▁en",
        -268.0
      ],
      [
        "▁so",
        -269.0
      ],
      [
        "ake",
        -270.0
      ],
      [
        "▁up",
        -271.0
      ],
      [
        "▁my",
        -272.0
      ],
      [
        "ated",
        -273.0
      ],
      [
        "ong",
        -274.0
      ],
      [
        "▁\\",
        -275.0
      ],
      [
        "ans",
        -276.0
      ],
      [
        "▁St",
        -277.0
      ],
      [
        "ther",
        -278.0
      ],
      [
        "▁Y",
        -279.0
      ],
      [
        "▁K",
        -280.0
      ],
      [
        "port",
        -281.0
      ],
      [
        "ie",
        -282.0
      ],
      [
        "ase",
        -283.0
      ],
      [
        "int",
        -284.0
      ],
      [
        "▁V",
        -285.0
      ],
      [
        "ber",
        -286.0
      ],
      [
        "//",
        -287.0
      ],
      [
        "ile",
        -288.0
      ],
      [
        "gh",
        -289.0
      ],
      [
        "▁comp",
        -290.0
      ],
      [
        "cc",
        -291.0
      ],
      [
        "▁if",
        -292.0
      ],
      [
        "ions",
        -293.0
      ],
      [
        "av",
        -294.0
      ],
      [
        "ace",
        -295.0
      ],
      [
        "ail",
        -296.0
      ],
      [
        "very",
        -297.0
      ],
      [
        "act",
        -298.0
      ],
      [
        "▁they",
        -299.0
      ],
      [
        "--",
        -300.0
      ],
      [
        "▁more",
        -301.0
      ],
      [
        "▁int",
        -302.0
      ],
      [
        "▁li",
        -303.0
      ],
      [
        "ous",
        -304.0
      ],
      [
        "urn",
        -305.0
      ],
      [
        "▁un",
        -306.0
      ],
      [
        "ks",
        -307.0
      ],
      [
        "ry",
        -308.0
      ],
      [
        "xt",
        -309.0
      ],
      [
        "▁“",
        -310.0
      ],
      [
        "ign",
        -311.0
      ],
      [
        "ia",
        -312.0
      ],
      [
        "ire",
        -313.0
      ],
      [
        "▁one",
        -314.0
      ],
      [
        "so",
        -315.0
      ],
      [
        "ance",
        -316.0
      ],
      [
        "ep",
        -317.0
      ],
      [
        "▁res",
        -318.0
      ],
      [
        "ary",
        -319.0
      ],
      [
        "▁▁▁▁▁▁▁▁▁▁▁▁▁▁▁▁",
        -320.0
      ],
      [
        "lic",
        -321.0
      ],
      [
        "▁their",
        -322.0
      ],
      [
        "▁cont",
        -323.0
      ],
      [
        "ib",
        -324.0
      ],
      [
        "und",
        -325.0
      ],
      [
        "com",
        -326.0
      ],
      [
        "ll",
        -327.0
      ],
      [
        "▁about",
        -328.0
      ],
      [
        "▁new",
        -329.0
      ],
      [
        "▁get",
        -330.0
      ],
      [
        "du",
        -331.0
      ],
      [
        "▁qu",
        -332.0
      ],
      [
        "ach",
        -333.0
      ],
      [
        "con",
        -334.0
      ],
      [
        "ord",
        -335.0
      ],
      [
        "..",
        -336.0
      ],
      [
        "▁It",
        -337.0
      ],
      [
        "▁his",
        -338.0
      ],
      [
        "▁app",
        -339.0
      ],
      [
        "▁man",
        -340.0
      ],
      [
        "erv",
        -341.0
      ],
      [
        "ations",
        -342.0
      ],
      [
        "ree",
        -343.0
      ],
      [
        "▁which",
        -344.0
      ],
      [
        "ount",
        -345.0
      ],
      [
        "▁our",
        -346.0
      ],
      [
        "▁Ch",
        -347.0
      ],
      [
        "form",
        -348.0
      ],
      [
        "▁who",
        -349.0
      ],
      [
        "ress",
        -350.0
      ],
      [
        "reat",
        -351.0
      ],
      [
        "ents",
        -352.0
      ],
      [
        "▁te",
        -353.0
      ],
      [
        "own",
        -354.0
      ],
      [
        "ring",
        -355.0
      ],
      [
        "ove",
        -356.0
      ],
      [
        "ob",
        -357.0
      ],
      [
        "ays",
        -358.0
      ],
      [
        "▁sp",
        -359.0
      ],
      [
        "▁per",
        -360.0
      ],
      [
        "ition",
        -361.0
      ],
      [
        ").",
        -362.0
      ],
      [
        "ere",
        -363.0
      ],
      [
        "ens",
        -364.0
      ],
      [
        "ild",
        -365.0
      ],
      [
        "vel",
        -366.0
      ],
      [
        "get",
        -367.0
      ],
      [
        "▁sa",
        -368.0
      ],
      [
        "ru",
        -369.0
      ],
      [
        "▁off",
        -370.0
      ],
      [
        "ical",
        -371.0
      ],
      [
        "ang",
        -372.0
      ],
      [
        "▁time",
        -373.0
      ],
      [
        "▁ar",
        -374.0
      ],
      [
        "▁Re",
        -375.0
      ],
      [
        "▁dis",
        -376.0
      ],
      [
        "▁ev",
        -377.0
      ],
      [
        "▁▁▁▁▁▁",
        -378.0
      ],
      [
        "ick",
        -379.0
      ],
      [
        "▁other",
        -380.0
      ],
      [
        "ence",
        -381.0
      ],
      [
        "▁any",
        -382.0
      ],
      [
        "▁some",
        -383.0
      ],
      [
        "ely",
        -384.0
      ],
      [
        "**",
        -385.0
      ],
      [
        "▁We",
        -386.0
      ],
      [
        "ath",
        -387.0
      ],
      [
        "ark",
        -388.0
      ],
      [
        "▁like",
        -389.0
      ],
      [
        "ink",
        -390.0
      ],
      [
        "▁kn",
        -391.0
      ],
      [
        "▁also",
        -392.0
      ],
      [
        "▁work",
        -393.0
      ],
      [
        "ck",
        -394.0
      ],
      [
        "▁sc",
        -395.0
      ],
      [
        "ory",
        -396.0
      ],
      [
        "▁ag",
        -397.0
      ],
      [
        "▁there",
        -398.0
      ],
      [
        "ose",
        -399.0
      ],
      [
        "▁&",
        -400.0
      ],
      [
        "▁This",
        -401.0
      ],
      [
        "▁when",
        -402.0
      ],
      [
        "▁would",
        -403.0
      ],
      [
        "▁had",
        -404.0
      ],
      [
        "ings",
        -405.0
      ],
      [
        "ft",
        -406.0
      ],
      [
        "ors",
        -407.0
      ],
      [
        "▁them",
        -408.0
      ],
      [
        "ject",
        -409.0
      ],
      [
        "▁year",
        -410.0
      ],
      [
        "iew",
        -411.0
      ],
      [
        "ound",
        -412.0
      ],
      [
        "▁part",
        -413.0
      ],
      [
        "()",
        -414.0
      ],
      [
        "▁ro",
        -415.0
      ],
      [
        "▁'",
        -416.0
      ],
      [
        "ef",
        -417.0
      ],
      [
        "ov",
        -418.0
      ],
      [
        "▁over",
        -419.0
      ],
      [
        "▁were",
        -420.0
      ],
      [
        "▁what",
        -421.0
      ],
      [
        "▁been",
        -422.0
      ],
      [
        "▁her",
        -423.0
      ],
      [
        "ph",
        -424.0
      ],
      [
        "▁just",
        -425.0
      ],
      [
        "iss",
        -426.0
      ],
      [
        "▁pe",
        -427.0
      ],
      [
        "▁am",
        -428.0
      ],
      [
        "turn",
        -429.0
      ],
      [
        "ata",
        -430.0
      ],
      [
        "▁pre",
        -431.0
      ],
      [
        "row",
        -432.0
      ],
      [
        "▁*",
        -433.0
      ],
      [
        "vers",
        -434.0
      ],
      [
        "use",
        -435.0
      ],
      [
        "▁#",
        -436.0
      ],
      [
        "ont",
        -437.0
      ],
      [
        "ood",
        -438.0
      ],
      [
        "ish",
        -439.0
      ],
      [
        "ne",
        -440.0
      ],
      [
        "▁than",
        -441.0
      ],
      [
        "old",
        -442.0
      ],
      [
        "=\"",
        -443.0
      ],
      [
        "▁[",
        -444.0
      ],
      [
        "▁need",
        -445.0
      ],
      [
        "▁//",
        -446.0
      ],
      [
        "irst",
        -447.0
      ],
      [
        "ty",
        -448.0
      ],
      [
        "ode",
        -449.0
      ],
      [
        "low",
        -450.0
      ],
      [
        "ool",
        -451.0
      ],
      [
        "),",
        -452.0
      ],
      [
        "▁no",
        -453.0
      ],
      [
        "oy",
        -454.0
      ],
      [
        "▁fe",
        -455.0
      ],
      [
        "ert",
        -456.0
      ],
      [
        "▁des",
        -457.0
      ],
      [
        "ple",
        -458.0
      ],
      [
        "▁He",
        -459.0
      ],
      [
        "ock",
        -460.0
      ],
      [
        "▁bl",
        -461.0
      ],
      [
        "▁how",
        -462.0
      ],
      [
        "clud",
        -463.0
      ],
      [
        "tern",
        -464.0
      ],
      [
        "\",",
        -465.0
      ],
      [
        "▁into",
        -466.0
      ],
      [
        "ull",
        -467.0
      ],
      [
        "ople",
        -468.0
      ],
      [
        "▁–",
        -469.0
      ],
      [
        "ater",
        -470.0
      ],
      [
        "ade",
        -471.0
      ],
      [
        "ual",
        -472.0
      ],
      [
        "mer",
        -473.0
      ],
      [
        "we",
        -474.0
      ],
      [
        "che",
        -475.0
      ],
      [
        "▁Wh",
        -476.0
      ],
      [
        "▁acc",
        -477.0
      ],
      [
        "▁its",
        -478.0
      ],
      [
        "eth",
        -479.0
      ],
      [
        "ublic",
        -480.0
      ],
      [
        "pec",
        -481.0
      ],
      [
        "fter",
        -482.0
      ],
      [
        "itt",
        -483.0
      ],
      [
        "ric",
        -484.0
      ],
      [
        "ca",
        -485.0
      ],
      [
        "ces",
        -486.0
      ],
      [
        "ond",
        -487.0
      ],
      [
        "ian",
        -488.0
      ],
      [
        "St",
        -489.0
      ],
      [
        "▁add",
        -490.0
      ],
      [
        "iff",
        -491.0
      ],
      [
        "ex",
        -492.0
      ],
      [
        "igh",
        -493.0
      ],
      [
        "ize",
        -494.0
      ],
      [
        "▁und",
        -495.0
      ],
      [
        "ning",
        -496.0
      ],
      [
        "▁col",
        -497.0
      ],
      [
        "sp",
        -498.0
      ],
      [
        "▁You",
        -499.0
      ],
      [
        "▁rec",
        -500.0
      ],
      [
        "▁she",
        -501.0
      ],
      [
        "▁.",
        -502.0
      ],
      [
        "li",
        -503.0
      ],
      [
        "ons",
        -504.0
      ],
      [
        "▁know",
        -505.0
      ],
      [
        "▁tw",
        -506.0
      ],
      [
        "ss",
        -507.0
      ],
      [
        "ates",
        -508.0
      ],
      [
        "▁look",
        -509.0
      ],
      [
        "▁people",
        -510.0
      ],
      [
        "round",
        -511.0
      ],
      [
        "gr",
        -512.0
      ],
      [
        "▁back",
        -513.0
      ],
      [
        "yst",
        -514.0
      ],
      [
        "▁only",
        -515.0
      ],
      [
        "ious",
        -516.0
      ],
      [
        "ps",
        -517.0
      ],
      [
        "▁class",
        -518.0
      ],
      [
        "▁comm",
        -519.0
      ],
      [
        "▁bu",
        -520.0
      ],
      [
        "ating",
        -521.0
      ],
      [
        "▁said",
        -522.0
      ],
      [
        "▁i",
        -523.0
      ],
      [
        "▁make",
        -524.0
      ],
      [
        "▁may",
        -525.0
      ],
      [
        "les",
        -526.0
      ],
      [
        "▁ind",
        -527.0
      ],
      [
        "▁first",
        -528.0
      ],
      [
        "▁import",
        -529.0
      ],
      [
        "lect",
        -530.0
      ],
      [
        "▁bet",
        -531.0
      ],
      [
        "elf",
        -532.0
      ],
      [
        "</",
        -533.0
      ],
      [
        "oint",
        -534.0
      ],
      [
        "lo",
        -535.0
      ],
      [
        "ng",
        -536.0
      ],
      [
        "▁want",
        -537.0
      ],
      [
        "rib",
        -538.0
      ],
      [
        "ption",
        -539.0
      ],
      [
        "wn",
        -540.0
      ],
      [
        "▁see",
        -541.0
      ],
      [
        "▁hel",
        -542.0
      ],
      [
        "▁fun",
        -543.0
      ],
      [
        "▁pr",
        -544.0
      ],
      [
        "▁use",
        -545.0
      ],
      [
        "ific",
        -546.0
      ],
      [
        "ise",
        -547.0
      ],
      [
        "ough",
        -548.0
      ],
      [
        "ener",
        -549.0
      ],
      [
        "pro",
        -550.0
      ],
      [
        "ug",
        -551.0
      ],
      [
        "▁set",
        -552.0
      ],
      [
        "rough",
        -553.0
      ],
      [
        "▁:",
        -554.0
      ],
      [
        "▁act",
        -555.0
      ],
      [
        "▁return",
        -556.0
      ],
      [
        "▁Pro",
        -557.0
      ],
      [
        "▁em",
        -558.0
      ],
      [
        "ystem",
        -559.0
      ],
      [
        "ments",
        -560.0
      ],
      [
        "▁/",
        -561.0
      ],
      [
        "▁prov",
        -562.0
      ],
      [
        "...",
        -563.0
      ],
      [
        "▁If",
        -564.0
      ],
      [
        "▁every",
        -565.0
      ],
      [
        "cre",
        -566.0
      ],
      [
        "rit",
        -567.0
      ],
      [
        "▁|",
        -568.0
      ],
      [
        "ax",
        -569.0
      ],
      [
        "▁Com",
        -570.0
      ],
      [
        "ype",
        -571.0
      ],
      [
        "▁most",
        -572.0
      ],
      [
        "ange",
        -573.0
      ],
      [
        "day",
        -574.0
      ],
      [
        "----",
        -575.0
      ],
      [
        "▁+",
        -576.0
      ],
      [
        "▁exp",
        -577.0
      ],
      [
        "▁well",
        -578.0
      ],
      [
        "▁ph",
        -579.0
      ],
      [
        "▁could",
        -580.0
      ],
      [
        "▁under",
        -581.0
      ],
      [
        "cess",
        -582.0
      ],
      [
        "ble",
        -583.0
      ],
      [
        "ern",
        -584.0
      ],
      [
        "als",
        -585.0
      ],
      [
        "▁cons",
        -586.0
      ],
      [
        "▁two",
        -587.0
      ],
      [
        "▁these",
        -588.0
      ],
      [
        "uch",
        -589.0
      ],
      [
        "▁Se",
        -590.0
      ],
      [
        "▁diff",
        -591.0
      ],
      [
        "aw",
        -592.0
      ],
      [
        "ful",
        -593.0
      ],
      [
        "ys",
        -594.0
      ],
      [
        "erm",
        -595.0
      ],
      [
        "io",
        -596.0
      ],
      [
        "▁ass",
        -597.0
      ],
      [
        "▁then",
        -598.0
      ],
      [
        "ting",
        -599.0
      ],
      [
        "line",
        -600.0
      ],
      [
        "▁ke",
        -601.0
      ],
      [
        "▁through",
        -602.0
      ],
      [
        "oth",
        -603.0
      ],
      [
        "▁should",
        -604.0
      ],
      [
        "▁very",
        -605.0
      ],
      [
        "ix",
        -606.0
      ],
      [
        "cause",
        -607.0
      ],
      [
        "▁co",
        -608.0
      ],
      [
        "▁And",
        -609.0
      ],
      [
        "riv",
        -610.0
      ],
      [
        "ities",
        -611.0
      ],
      [
        "▁good",
        -612.0
      ],
      [
        "▁att",
        -613.0
      ],
      [
        "▁produ",
        -614.0
      ],
      [
        "▁Un",
        -615.0
      ],
      [
        "▁includ",
        -616.0
      ],
      [
        "▁help",
        -617.0
      ],
      [
        "::",
        -618.0
      ],
      [
        "▁supp",
        -619.0
      ],
      [
        "▁pos",
        -620.0
      ],
      [
        "alue",
        -621.0
      ],
      [
        "▁fin",
        -622.0
      ],
      [
        "ork",
        -623.0
      ],
      [
        "▁serv",
        -624.0
      ],
      [
        "▁reg",
        -625.0
      ],
      [
        "ife",
        -626.0
      ],
      [
        "(\"",
        -627.0
      ],
      [
        "▁where",
        -628.0
      ],
      [
        "hed",
        -629.0
      ],
      [
        "ced",
        -630.0
      ],
      [
        "▁way",
        -631.0
      ],
      [
        "▁now",
        -632.0
      ],
      [
        "ily",
        -633.0
      ],
      [
        "▁public",
        -634.0
      ],
      [
        "▁rem",
        -635.0
      ],
      [
        "ible",
        -636.0
      ],
      [
        "ular",
        -637.0
      ],
      [
        "▁after",
        -638.0
      ],
      [
        "▁def",
        -639.0
      ],
      [
        "▁An",
        -640.0
      ],
      [
        "ok",
        -641.0
      ],
      [
        "hen",
        -642.0
      ],
      [
        "ures",
        -643.0
      ],
      [
        "▁don",
        -644.0
      ],
      [
        "▁inst",
        -645.0
      ],
      [
        "iel",
        -646.0
      ],
      [
        "fore",
        -647.0
      ],
      [
        "atch",
        -648.0
      ],
      [
        "eg",
        -649.0
      ],
      [
        "▁did",
        -650.0
      ],
      [
        "err",
        -651.0
      ],
      [
        "▁ob",
        -652.0
      ],
      [
        "ics",
        -653.0
      ],
      [
        "▁even",
        -654.0
      ],
      [
        "▁rel",
        -655.0
      ],
      [
        "▁sm",
        -656.0
      ],
      [
        "erson",
        -657.0
      ],
      [
        "ict",
        -658.0
      ],
      [
        "ility",
        -659.0
      ],
      [
        "ract",
        -660.0
      ],
      [
        "sh",
        -661.0
      ],
      [
        "▁play",
        -662.0
      ],
      [
        "its",
        -663.0
      ],
      [
        "ash",
        -664.0
      ],
      [
        "▁requ",
        -665.0
      ],
      [
        "▁For",
        -666.0
      ],
      [
        "▁inv",
        -667.0
      ],
      [
        "In",
        -668.0
      ],
      [
        "ient",
        -669.0
      ],
      [
        "▁var",
        -670.0
      ],
      [
        "▁read",
        -671.0
      ],
      [
        "▁many",
        -672.0
      ],
      [
        "▁@",
        -673.0
      ],
      [
        "ices",
        -674.0
      ],
      [
        "▁him",
        -675.0
      ],
      [
        "▁start",
        -676.0
      ],
      [
        "▁Sh",
        -677.0
      ],
      [
        "ER",
        -678.0
      ],
      [
        "▁think",
        -679.0
      ],
      [
        "aking",
        -680.0
      ],
      [
        "▁because",
        -681.0
      ],
      [
        "▁right",
        -682.0
      ],
      [
        "put",
        -683.0
      ],
      [
        "iness",
        -684.0
      ],
      [
        "olog",
        -685.0
      ],
      [
        "▁Al",
        -686.0
      ],
      [
        "▁stud",
        -687.0
      ],
      [
        "▁years",
        -688.0
      ],
      [
        "arch",
        -689.0
      ],
      [
        "▁end",
        -690.0
      ],
      [
        "▁great",
        -691.0
      ],
      [
        "ased",
        -692.0
      ],
      [
        "▁ent",
        -693.0
      ],
      [
        "▁De",
        -694.0
      ],
      [
        "▁gu",
        -695.0
      ],
      [
        "any",
        -696.0
      ],
      [
        "pr",
        -697.0
      ],
      [
        "read",
        -698.0
      ],
      [
        "▁much",
        -699.0
      ],
      [
        "view",
        -700.0
      ],
      [
        "▁tra",
        -701.0
      ],
      [
        "▁down",
        -702.0
      ],
      [
        "ren",
        -703.0
      ],
      [
        "air",
        -704.0
      ],
      [
        "ward",
        -705.0
      ],
      [
        "▁gr",
        -706.0
      ],
      [
        "▁mod",
        -707.0
      ],
      [
        "ues",
        -708.0
      ],
      [
        "ement",
        -709.0
      ],
      [
        "ational",
        -710.0
      ],
      [
        "▁che",
        -711.0
      ],
      [
        "__",
        -712.0
      ],
      [
        "▁sub",
        -713.0
      ],
      [
        "ied",
        -714.0
      ],
      [
        "ank",
        -715.0
      ],
      [
        "\">",
        -716.0
      ],
      [
        "▁const",
        -717.0
      ],
      [
        "▁find",
        -718.0
      ],
      [
        "ale",
        -719.0
      ],
      [
        "▁here",
        -720.0
      ],
      [
        "ts",
        -721.0
      ],
      [
        "other",
        -722.0
      ],
      [
        "▁Ar",
        -723.0
      ],
      [
        "▁\r",
        -724.0
      ],
      [
        "▁exper",
        -725.0
      ],
      [
        "▁spec",
        -726.0
      ],
      [
        "▁long",
        -727.0
      ],
      [
        "▁does",
        -728.0
      ],
      [
        "ollow",
        -729.0
      ],
      [
        "ident",
        -730.0
      ],
      [
        "ner",
        -731.0
      ],
      [
        "▁loc",
        -732.0
      ],
      [
        "ative",
        -733.0
      ],
      [
        "▁show",
        -734.0
      ],
      [
        "▁call",
        -735.0
      ],
      [
        "▁As",
        -736.0
      ],
      [
        "ek",
        -737.0
      ],
      [
        "();",
        -738.0
      ],
      [
        "▁el",
        -739.0
      ],
      [
        "cy",
        -740.0
      ],
      [
        "IN",
        -741.0
      ],
      [
        "▁min",
        -742.0
      ],
      [
        "▁own",
        -743.0
      ],
      [
        "formation",
        -744.0
      ],
      [
        "ield",
        -745.0
      ],
      [
        "arg",
        -746.0
      ],
      [
        "▁Ad",
        -747.0
      ],
      [
        "ages",
        -748.0
      ],
      [
        "▁But",
        -749.0
      ],
      [
        "_{",
        -750.0
      ],
      [
        "▁differe",
        -751.0
      ],
      [
        "az",
        -752.0
      ],
      [
        "▁New",
        -753.0
      ],
      [
        "ience",
        -754.0
      ],
      [
        "▁ac",
        -755.0
      ],
      [
        "ox",
        -756.0
      ],
      [
        "▁such",
        -757.0
      ],
      [
        "ave",
        -758.0
      ],
      [
        "usiness",
        -759.0
      ],
      [
        "velop",
        -760.0
      ],
      [
        "▁fl",
        -761.0
      ],
      [
        "uring",
        -762.0
      ],
      [
        "▁num",
        -763.0
      ],
      [
        "▁again",
        -764.0
      ],
      [
        "oid",
        -765.0
      ],
      [
        "let",
        -766.0
      ],
      [
        "▁sim",
        -767.0
      ],
      [
        "▁eff",
        -768.0
      ],
      [
        "pen",
        -769.0
      ],
      [
        "▁Q",
        -770.0
      ],
      [
        "▁day",
        -771.0
      ],
      [
        "ars",
        -772.0
      ],
      [
        "▁bel",
        -773.0
      ],
      [
        "ms",
        -774.0
      ],
      [
        "ON",
        -775.0
      ],
      [
        "ower",
        -776.0
      ],
      [
        "▁som",
        -777.0
      ],
      [
        "▁pol",
        -778.0
      ],
      [
        "ited",
        -779.0
      ],
      [
        "▁trans",
        -780.0
      ],
      [
        "▁best",
        -781.0
      ],
      [
        "▁cre",
        -782.0
      ],
      [
        "ins",
        -783.0
      ],
      [
        "▁high",
        -784.0
      ],
      [
        "->",
        -785.0
      ],
      [
        "ven",
        -786.0
      ],
      [
        "ually",
        -787.0
      ],
      [
        "▁being",
        -788.0
      ],
      [
        "▁using",
        -789.0
      ],
      [
        "alth",
        -790.0
      ],
      [
        "▁take",
        -791.0
      ],
      [
        "▁before",
        -792.0
      ],
      [
        "text",
        -793.0
      ],
      [
        "▁mon",
        -794.0
      ],
      [
        "atic",
        -795.0
      ],
      [
        "to",
        -796.0
      ],
      [
        "▁pres",
        -797.0
      ],
      [
        "der",
        -798.0
      ],
      [
        "▁How",
        -799.0
      ],
      [
        "▁hand",
        -800.0
      ],
      [
        "rent",
        -801.0
      ],
      [
        "==",
        -802.0
      ],
      [
        "▁cur",
        -803.0
      ],
      [
        "ets",
        -804.0
      ],
      [
        "vent",
        -805.0
      ],
      [
        "ton",
        -806.0
      ],
      [
        "amp",
        -807.0
      ],
      [
        "▁used",
        -808.0
      ],
      [
        "led",
        -809.0
      ],
      [
        "▁inter",
        -810.0
      ],
      [
        "▁dec",
        -811.0
      ],
      [
        "alk",
        -812.0
      ],
      [
        "app",
        -813.0
      ],
      [
        "▁ext",
        -814.0
      ],
      [
        "nce",
        -815.0
      ],
      [
        "ah",
        -816.0
      ],
      [
        "els",
        -817.0
      ],
      [
        "▁those",
        -818.0
      ],
      [
        "way",
        -819.0
      ],
      [
        "▁follow",
        -820.0
      ],
      [
        "gan",
        -821.0
      ],
      [
        "▁made",
        -822.0
      ],
      [
        "ution",
        -823.0
      ],
      [
        "▁av",
        -824.0
      ],
      [
        "chool",
        -825.0
      ],
      [
        "▁resp",
        -826.0
      ],
      [
        "ute",
        -827.0
      ],
      [
        "imes",
        -828.0
      ],
      [
        ".\"",
        -829.0
      ],
      [
        "ames",
        -830.0
      ],
      [
        "ason",
        -831.0
      ],
      [
        "▁There",
        -832.0
      ],
      [
        "▁det",
        -833.0
      ],
      [
        "▁sur",
        -834.0
      ],
      [
        "▁really",
        -835.0
      ],
      [
        "',",
        -836.0
      ],
      [
        "ince",
        -837.0
      ],
      [
        "par",
        -838.0
      ],
      [
        "▁person",
        -839.0
      ],
      [
        "ouse",
        -840.0
      ],
      [
        "irect",
        -841.0
      ],
      [
        "set",
        -842.0
      ],
      [
        "ec",
        -843.0
      ],
      [
        "ator",
        -844.0
      ],
      [
        "▁data",
        -845.0
      ],
      [
        "ght",
        -846.0
      ],
      [
        "ines",
        -847.0
      ],
      [
        "▁last",
        -848.0
      ],
      [
        "▁Ex",
        -849.0
      ],
      [
        "sc",
        -850.0
      ],
      [
        ".”",
        -851.0
      ],
      [
        "gram",
        -852.0
      ],
      [
        "▁So",
        -853.0
      ],
      [
        "▁aut",
        -854.0
      ],
      [
        "▁list",
        -855.0
      ],
      [
        "ody",
        -856.0
      ],
      [
        "bs",
        -857.0
      ],
      [
        "▁car",
        -858.0
      ],
      [
        "▁post",
        -859.0
      ],
      [
        "▁fam",
        -860.0
      ],
      [
        "ather",
        -861.0
      ],
      [
        "lease",
        -862.0
      ],
      [
        "ery",
        -863.0
      ],
      [
        "ann",
        -864.0
      ],
      [
        "▁home",
        -865.0
      ],
      [
        "arn",
        -866.0
      ],
      [
        "▁while",
        -867.0
      ],
      [
        "rest",
        -868.0
      ],
      [
        "eng",
        -869.0
      ],
      [
        "▁br",
        -870.0
      ],
      [
        "▁each",
        -871.0
      ],
      [
        "▁ser",
        -872.0
      ],
      [
        "▁result",
        -873.0
      ],
      [
        "land",
        -874.0
      ],
      [
        "ever",
        -875.0
      ],
      [
        "RE",
        -876.0
      ],
      [
        "▁system",
        -877.0
      ],
      [
        "▁mem",
        -878.0
      ],
      [
        "▁ref",
        -879.0
      ],
      [
        "tr",
        -880.0
      ],
      [
        "▁conf",
        -881.0
      ],
      [
        "▁run",
        -882.0
      ],
      [
        "\":",
        -883.0
      ],
      [
        "▁form",
        -884.0
      ],
      [
        "ruct",
        -885.0
      ],
      [
        "ature",
        -886.0
      ],
      [
        "▁inte",
        -887.0
      ],
      [
        "roup",
        -888.0
      ],
      [
        "co",
        -889.0
      ],
      [
        "▁_",
        -890.0
      ],
      [
        "▁same",
        -891.0
      ],
      [
        "▁Cl",
        -892.0
      ],
      [
        "▁point",
        -893.0
      ],
      [
        "pos",
        -894.0
      ],
      [
        "▁Be",
        -895.0
      ],
      [
        "▁function",
        -896.0
      ],
      [
        "cond",
        -897.0
      ],
      [
        "▁art",
        -898.0
      ],
      [
        "arm",
        -899.0
      ],
      [
        "br",
        -900.0
      ],
      [
        "▁la",
        -901.0
      ],
      [
        "▁life",
        -902.0
      ],
      [
        "ection",
        -903.0
      ],
      [
        "▁med",
        -904.0
      ],
      [
        "▁mark",
        -905.0
      ],
      [
        "oot",
        -906.0
      ],
      [
        "akes",
        -907.0
      ],
      [
        "ives",
        -908.0
      ],
      [
        "▁going",
        -909.0
      ],
      [
        "ier",
        -910.0
      ],
      [
        "▁▁▁▁▁▁▁▁▁▁",
        -911.0
      ],
      [
        "▁still",
        -912.0
      ],
      [
        "▁different",
        -913.0
      ],
      [
        "▁world",
        -914.0
      ],
      [
        "ense",
        -915.0
      ],
      [
        "▁information",
        -916.0
      ],
      [
        "ustom",
        -917.0
      ],
      [
        "anc",
        -918.0
      ],
      [
        "▁business",
        -919.0
      ],
      [
        "ween",
        -920.0
      ],
      [
        "chn",
        -921.0
      ],
      [
        "▁real",
        -922.0
      ],
      [
        "▁ed",
        -923.0
      ],
      [
        "▁vis",
        -924.0
      ],
      [
        "▁too",
        -925.0
      ],
      [
        "riend",
        -926.0
      ],
      [
        "▁ca",
        -927.0
      ],
      [
        "The",
        -928.0
      ],
      [
        "self",
        -929.0
      ],
      [
        "▁str",
        -930.0
      ],
      [
        "uc",
        -931.0
      ],
      [
        "tt",
        -932.0
      ],
      [
        "▁develop",
        -933.0
      ],
      [
        "▁gener",
        -934.0
      ],
      [
        "▁name",
        -935.0
      ],
      [
        "ired",
        -936.0
      ],
      [
        "ead",
        -937.0
      ],
      [
        "▁cor",
        -938.0
      ],
      [
        "ivers",
        -939.0
      ],
      [
        "▁say",
        -940.0
      ],
      [
        "▁What",
        -941.0
      ],
      [
        "be",
        -942.0
      ],
      [
        "▁sign",
        -943.0
      ],
      [
        "iet",
        -944.0
      ],
      [
        "▁count",
        -945.0
      ],
      [
        "▁around",
        -946.0
      ],
      [
        "▁They",
        -947.0
      ],
      [
        "AT",
        -948.0
      ],
      [
        "ST",
        -949.0
      ],
      [
        "▁Pl",
        -950.0
      ],
      [
        "▁found",
        -951.0
      ],
      [
        "▁fr",
        -952.0
      ],
      [
        "ref",
        -953.0
      ],
      [
        "ized",
        -954.0
      ],
      [
        "▁fil",
        -955.0
      ],
      [
        "▁support",
        -956.0
      ],
      [
        "▁design",
        -957.0
      ],
      [
        "▁ra",
        -958.0
      ],
      [
        "▁x",
        -959.0
      ],
      [
        "▁love",
        -960.0
      ],
      [
        "▁ins",
        -961.0
      ],
      [
        "hip",
        -962.0
      ],
      [
        "▁sk",
        -963.0
      ],
      [
        "ness",
        -964.0
      ],
      [
        "▁gl",
        -965.0
      ],
      [
        "▁On",
        -966.0
      ],
      [
        "de",
        -967.0
      ],
      [
        "▁cle",
        -968.0
      ],
      [
        "▁cour",
        -969.0
      ],
      [
        "ource",
        -970.0
      ],
      [
        "▁del",
        -971.0
      ],
      [
        "▁try",
        -972.0
      ],
      [
        "▁child",
        -973.0
      ],
      [
        "ittle",
        -974.0
      ],
      [
        "ym",
        -975.0
      ],
      [
        "ined",
        -976.0
      ],
      [
        "▁Con",
        -977.0
      ],
      [
        "▁between",
        -978.0
      ],
      [
        "ected",
        -979.0
      ],
      [
        "cept",
        -980.0
      ],
      [
        "▁To",
        -981.0
      ],
      [
        "ider",
        -982.0
      ],
      [
        "▁product",
        -983.0
      ],
      [
        "ways",
        -984.0
      ],
      [
        "▁Bl",
        -985.0
      ],
      [
        "▁Tr",
        -986.0
      ],
      [
        "****",
        -987.0
      ],
      [
        "▁book",
        -988.0
      ],
      [
        "▁test",
        -989.0
      ],
      [
        "ters",
        -990.0
      ],
      [
        "{\\",
        -991.0
      ],
      [
        "oun",
        -992.0
      ],
      [
        "ott",
        -993.0
      ],
      [
        "▁top",
        -994.0
      ],
      [
        "▁sol",
        -995.0
      ],
      [
        "▁free",
        -996.0
      ],
      [
        "come",
        -997.0
      ],
      [
        "▁both",
        -998.0
      ],
      [
        "raph",
        -999.0
      ],
      [
        "▁>",
        -1000.0
      ],
      [
        "the",
        -1001.0
      ],
      [
        "▁dist",
        -1002.0
      ],
      [
        "▁happ",
        -1003.0
      ],
      [
        "cent",
        -1004.0
      ],
      [
        "▁inf",
        -1005.0
      ],
      [
        "▁lead",
        -1006.0
      ],
      [
        "))",
        -1007.0
      ],
      [
        "▁eas",
        -1008.0
      ],
      [
        "▁lot",
        -1009.0
      ],
      [
        "ought",
        -1010.0
      ],
      [
        "uss",
        -1011.0
      ],
      [
        "Con",
        -1012.0
      ],
      [
        "yn",
        -1013.0
      ],
      [
        "▁She",
        -1014.0
      ],
      [
        "man",
        -1015.0
      ],
      [
        "▁char",
        -1016.0
      ],
      [
        "lection",
        -1017.0
      ],
      [
        "▁cr",
        -1018.0
      ],
      [
        "▁process",
        -1019.0
      ],
      [
        "son",
        -1020.0
      ],
      [
        "aut",
        -1021.0
      ],
      [
        "ething",
        -1022.0
      ],
      [
        "▁All",
        -1023.0
      ],
      [
        "▁care",
        -1024.0
      ],
      [
        "less",
        -1025.0
      ],
      [
        "ray",
        -1026.0
      ],
      [
        "yp",
        -1027.0
      ],
      [
        "ants",
        -1028.0
      ],
      [
        "▁let",
        -1029.0
      ],
      [
        "▁Sp",
        -1030.0
      ],
      [
        "▁few",
        -1031.0
      ],
      [
        "thing",
        -1032.0
      ],
      [
        "ik",
        -1033.0
      ],
      [
        "▁team",
        -1034.0
      ],
      [
        "unity",
        -1035.0
      ],
      [
        "ee",
        -1036.0
      ],
      [
        "▁place",
        -1037.0
      ],
      [
        "ession",
        -1038.0
      ],
      [
        "load",
        -1039.0
      ],
      [
        "ality",
        -1040.0
      ],
      [
        "▁Z",
        -1041.0
      ],
      [
        "orth",
        -1042.0
      ],
      [
        "▁par",
        -1043.0
      ],
      [
        "▁Ph",
        -1044.0
      ],
      [
        "▁week",
        -1045.0
      ],
      [
        "ving",
        -1046.0
      ],
      [
        "▁$\\",
        -1047.0
      ],
      [
        "gg",
        -1048.0
      ],
      [
        "cri",
        -1049.0
      ],
      [
        "▁fact",
        -1050.0
      ],
      [
        "▁things",
        -1051.0
      ],
      [
        "ote",
        -1052.0
      ],
      [
        "ross",
        -1053.0
      ],
      [
        "ream",
        -1054.0
      ],
      [
        "ailable",
        -1055.0
      ],
      [
        "▁feel",
        -1056.0
      ],
      [
        "▁wr",
        -1057.0
      ],
      [
        "▁little",
        -1058.0
      ],
      [
        "▁Col",
        -1059.0
      ],
      [
        "rol",
        -1060.0
      ],
      [
        "▁iss",
        -1061.0
      ],
      [
        "of",
        -1062.0
      ],
      [
        "▁`",
        -1063.0
      ],
      [
        "au",
        -1064.0
      ],
      [
        "▁prof",
        -1065.0
      ],
      [
        "ethod",
        -1066.0
      ],
      [
        "▁open",
        -1067.0
      ],
      [
        "ining",
        -1068.0
      ],
      [
        "▁program",
        -1069.0
      ],
      [
        "ared",
        -1070.0
      ],
      [
        "▁Te",
        -1071.0
      ],
      [
        "▁case",
        -1072.0
      ],
      [
        "▁disc",
        -1073.0
      ],
      [
        "▁lo",
        -1074.0
      ],
      [
        "ists",
        -1075.0
      ],
      [
        "ware",
        -1076.0
      ],
      [
        "▁z",
        -1077.0
      ],
      [
        "▁number",
        -1078.0
      ],
      [
        "▁</",
        -1079.0
      ],
      [
        "▁provid",
        -1080.0
      ],
      [
        "▁poss",
        -1081.0
      ],
      [
        "▁something",
        -1082.0
      ],
      [
        "▁Fr",
        -1083.0
      ],
      [
        "gy",
        -1084.0
      ],
      [
        "ered",
        -1085.0
      ],
      [
        "ma",
        -1086.0
      ],
      [
        "('",
        -1087.0
      ],
      [
        "ology",
        -1088.0
      ],
      [
        "ccess",
        -1089.0
      ],
      [
        "▁cent",
        -1090.0
      ],
      [
        "EN",
        -1091.0
      ],
      [
        "ital",
        -1092.0
      ],
      [
        "meric",
        -1093.0
      ],
      [
        "Pro",
        -1094.0
      ],
      [
        "▁build",
        -1095.0
      ],
      [
        "▁main",
        -1096.0
      ],
      [
        "▁!",
        -1097.0
      ],
      [
        "▁rep",
        -1098.0
      ],
      [
        "att",
        -1099.0
      ],
      [
        "hes",
        -1100.0
      ],
      [
        "▁three",
        -1101.0
      ],
      [
        "orn",
        -1102.0
      ],
      [
        "▁When",
        -1103.0
      ],
      [
        "▁keep",
        -1104.0
      ],
      [
        "--------",
        -1105.0
      ],
      [
        "bers",
        -1106.0
      ],
      [
        "▁appro",
        -1107.0
      ],
      [
        "▁exam",
        -1108.0
      ],
      [
        "OR",
        -1109.0
      ],
      [
        "add",
        -1110.0
      ],
      [
        "▁month",
        -1111.0
      ],
      [
        "Ex",
        -1112.0
      ],
      [
        "ems",
        -1113.0
      ],
      [
        "▁proble",
        -1114.0
      ],
      [
        "▁pass",
        -1115.0
      ],
      [
        "tain",
        -1116.0
      ],
      [
        "▁must",
        -1117.0
      ],
      [
        "AR",
        -1118.0
      ],
      [
        ",\"",
        -1119.0
      ],
      [
        "ush",
        -1120.0
      ],
      [
        "arly",
        -1121.0
      ],
      [
        "cur",
        -1122.0
      ],
      [
        "▁next",
        -1123.0
      ],
      [
        "▁Is",
        -1124.0
      ],
      [
        "▁sl",
        -1125.0
      ],
      [
        "▁Ind",
        -1126.0
      ],
      [
        "▁ide",
        -1127.0
      ],
      [
        "▁head",
        -1128.0
      ],
      [
        "que",
        -1129.0
      ],
      [
        "▁pur",
        -1130.0
      ],
      [
        "▁always",
        -1131.0
      ],
      [
        "▁==",
        -1132.0
      ],
      [
        "▁Res",
        -1133.0
      ],
      [
        "▁rest",
        -1134.0
      ],
      [
        "▁Or",
        -1135.0
      ],
      [
        "▁value",
        -1136.0
      ],
      [
        "▁better",
        -1137.0
      ],
      [
        "▁without",
        -1138.0
      ],
      [
        "▁partic",
        -1139.0
      ],
      [
        "▁put",
        -1140.0
      ],
      [
        "▁adv",
        -1141.0
      ],
      [
        "Name",
        -1142.0
      ],
      [
        "ved",
        -1143.0
      ],
      [
        "ished",
        -1144.0
      ],
      [
        "bl",
        -1145.0
      ],
      [
        "▁err",
        -1146.0
      ],
      [
        "ien",
        -1147.0
      ],
      [
        "inal",
        -1148.0
      ],
      [
        "▁Jo",
        -1149.0
      ],
      [
        "▁pat",
        -1150.0
      ],
      [
        "ering",
        -1151.0
      ],
      [
        "ows",
        -1152.0
      ],
      [
        "ument",
        -1153.0
      ],
      [
        "▁come",
        -1154.0
      ],
      [
        "aj",
        -1155.0
      ],
      [
        "▁quest",
        -1156.0
      ],
      [
        "rivate",
        -1157.0
      ],
      [
        "▁small",
        -1158.0
      ],
      [
        "▁val",
        -1159.0
      ],
      [
        "over",
        -1160.0
      ],
      [
        "comm",
        -1161.0
      ],
      [
        "▁project",
        -1162.0
      ],
      [
        "▁sure",
        -1163.0
      ],
      [
        "▁That",
        -1164.0
      ],
      [
        "equ",
        -1165.0
      ],
      [
        "▁dep",
        -1166.0
      ],
      [
        "uff",
        -1167.0
      ],
      [
        "iving",
        -1168.0
      ],
      [
        "▁might",
        -1169.0
      ],
      [
        "▁tri",
        -1170.0
      ],
      [
        "uck",
        -1171.0
      ],
      [
        "▁another",
        -1172.0
      ],
      [
        "▁friend",
        -1173.0
      ],
      [
        ",”",
        -1174.0
      ],
      [
        "oard",
        -1175.0
      ],
      [
        "min",
        -1176.0
      ],
      [
        "▁bre",
        -1177.0
      ],
      [
        "▁Sc",
        -1178.0
      ],
      [
        "issue",
        -1179.0
      ],
      [
        "return",
        -1180.0
      ],
      [
        "▁Americ",
        -1181.0
      ],
      [
        "▁custom",
        -1182.0
      ],
      [
        "▁interest",
        -1183.0
      ],
      [
        "▁contin",
        -1184.0
      ],
      [
        "▁My",
        -1185.0
      ],
      [
        "ism",
        -1186.0
      ],
      [
        "▁report",
        -1187.0
      ],
      [
        "stand",
        -1188.0
      ],
      [
        "math",
        -1189.0
      ],
      [
        "ision",
        -1190.0
      ],
      [
        "▁never",
        -1191.0
      ],
      [
        "▁type",
        -1192.0
      ],
      [
        "▁during",
        -1193.0
      ],
      [
        "atur",
        -1194.0
      ],
      [
        "▁second",
        -1195.0
      ],
      [
        "▁est",
        -1196.0
      ],
      [
        "▁got",
        -1197.0
      ],
      [
        "▁Le",
        -1198.0
      ],
      [
        "ope",
        -1199.0
      ],
      [
        "▁since",
        -1200.0
      ],
      [
        "▁big",
        -1201.0
      ],
      [
        "by",
        -1202.0
      ],
      [
        "ember",
        -1203.0
      ],
      [
        "IT",
        -1204.0
      ],
      [
        "ploy",
        -1205.0
      ],
      [
        "ially",
        -1206.0
      ],
      [
        "▁No",
        -1207.0
      ],
      [
        "▁old",
        -1208.0
      ],
      [
        "▁health",
        -1209.0
      ],
      [
        "Id",
        -1210.0
      ],
      [
        "▁school",
        -1211.0
      ],
      [
        "▁plan",
        -1212.0
      ],
      [
        "▁--",
        -1213.0
      ],
      [
        "rist",
        -1214.0
      ],
      [
        "▁available",
        -1215.0
      ],
      [
        "▁current",
        -1216.0
      ],
      [
        "▁effect",
        -1217.0
      ],
      [
        "ID",
        -1218.0
      ],
      [
        "▁techn",
        -1219.0
      ],
      [
        "pon",
        -1220.0
      ],
      [
        "ify",
        -1221.0
      ],
      [
        "back",
        -1222.0
      ],
      [
        "String",
        -1223.0
      ],
      [
        "AL",
        -1224.0
      ],
      [
        "▁‘",
        -1225.0
      ],
      [
        "▁online",
        -1226.0
      ],
      [
        "▁game",
        -1227.0
      ],
      [
        "til",
        -1228.0
      ],
      [
        "ername",
        -1229.0
      ],
      [
        "▁wom",
        -1230.0
      ],
      [
        "ves",
        -1231.0
      ],
      [
        "▁pay",
        -1232.0
      ],
      [
        "ats",
        -1233.0
      ],
      [
        "ior",
        -1234.0
      ],
      [
        "arent",
        -1235.0
      ],
      [
        "▁mov",
        -1236.0
      ],
      [
        "▁market",
        -1237.0
      ],
      [
        "reen",
        -1238.0
      ],
      [
        "▁stand",
        -1239.0
      ],
      [
        "AN",
        -1240.0
      ],
      [
        "▁else",
        -1241.0
      ],
      [
        "ten",
        -1242.0
      ],
      [
        "▁hard",
        -1243.0
      ],
      [
        "ask",
        -1244.0
      ],
      [
        "ger",
        -1245.0
      ],
      [
        "▁void",
        -1246.0
      ],
      [
        "▁line",
        -1247.0
      ],
      [
        "rem",
        -1248.0
      ],
      [
        "▁With",
        -1249.0
      ],
      [
        "ertain",
        -1250.0
      ],
      [
        "right",
        -1251.0
      ],
      [
        "▁direct",
        -1252.0
      ],
      [
        "oney",
        -1253.0
      ],
      [
        "},",
        -1254.0
      ],
      [
        "essage",
        -1255.0
      ],
      [
        "▁proper",
        -1256.0
      ],
      [
        "▁family",
        -1257.0
      ],
      [
        "▁service",
        -1258.0
      ],
      [
        "▁,",
        -1259.0
      ],
      [
        "▁expl",
        -1260.0
      ],
      [
        "▁rece",
        -1261.0
      ],
      [
        "▁equ",
        -1262.0
      ],
      [
        "▁soc",
        -1263.0
      ],
      [
        "▁oper",
        -1264.0
      ],
      [
        "ctions",
        -1265.0
      ],
      [
        "yle",
        -1266.0
      ],
      [
        "ases",
        -1267.0
      ],
      [
        "▁—",
        -1268.0
      ],
      [
        "▁Man",
        -1269.0
      ],
      [
        "▁ask",
        -1270.0
      ],
      [
        "here",
        -1271.0
      ],
      [
        "▁level",
        -1272.0
      ],
      [
        "▁et",
        -1273.0
      ],
      [
        "eb",
        -1274.0
      ],
      [
        "ately",
        -1275.0
      ],
      [
        "ral",
        -1276.0
      ],
      [
        "▁water",
        -1277.0
      ],
      [
        "▁true",
        -1278.0
      ],
      [
        "fr",
        -1279.0
      ],
      [
        "▁view",
        -1280.0
      ],
      [
        "ails",
        -1281.0
      ],
      [
        "Type",
        -1282.0
      ],
      [
        "▁company",
        -1283.0
      ],
      [
        "▁perform",
        -1284.0
      ],
      [
        "▁X",
        -1285.0
      ],
      [
        "fig",
        -1286.0
      ],
      [
        "ium",
        -1287.0
      ],
      [
        "ina",
        -1288.0
      ],
      [
        "▁Mar",
        -1289.0
      ],
      [
        "ron",
        -1290.0
      ],
      [
        "▁turn",
        -1291.0
      ],
      [
        "ault",
        -1292.0
      ],
      [
        "oss",
        -1293.0
      ],
      [
        "▁incre",
        -1294.0
      ],
      [
        "ified",
        -1295.0
      ],
      [
        "ait",
        -1296.0
      ],
      [
        "▁state",
        -1297.0
      ],
      [
        "▁di",
        -1298.0
      ],
      [
        "▁order",
        -1299.0
      ],
      [
        "name",
        -1300.0
      ],
      [
        "▁mat",
        -1301.0
      ],
      [
        "▁organ",
        -1302.0
      ],
      [
        "▁give",
        -1303.0
      ],
      [
        "▁prot",
        -1304.0
      ],
      [
        "work",
        -1305.0
      ],
      [
        "▁Pr",
        -1306.0
      ],
      [
        "hor",
        -1307.0
      ],
      [
        "ser",
        -1308.0
      ],
      [
        "▁full",
        -1309.0
      ],
      [
        ".,",
        -1310.0
      ],
      [
        "ization",
        -1311.0
      ],
      [
        "val",
        -1312.0
      ],
      [
        "://",
        -1313.0
      ],
      [
        "▁important",
        -1314.0
      ],
      [
        "ext",
        -1315.0
      ],
      [
        "▁experience",
        -1316.0
      ],
      [
        "▁opt",
        -1317.0
      ],
      [
        "▁grow",
        -1318.0
      ],
      [
        "ically",
        -1319.0
      ],
      [
        "ours",
        -1320.0
      ],
      [
        "▁At",
        -1321.0
      ],
      [
        "▁able",
        -1322.0
      ],
      [
        "iversity",
        -1323.0
      ],
      [
        "div",
        -1324.0
      ],
      [
        "▁met",
        -1325.0
      ],
      [
        "▁US",
        -1326.0
      ],
      [
        "ES",
        -1327.0
      ],
      [
        "itle",
        -1328.0
      ],
      [
        "arge",
        -1329.0
      ],
      [
        "▁spe",
        -1330.0
      ],
      [
        "col",
        -1331.0
      ],
      [
        "for",
        -1332.0
      ],
      [
        "med",
        -1333.0
      ],
      [
        "abel",
        -1334.0
      ],
      [
        "▁sit",
        -1335.0
      ],
      [
        "ception",
        -1336.0
      ],
      [
        "ds",
        -1337.0
      ],
      [
        "▁opp",
        -1338.0
      ],
      [
        "▁es",
        -1339.0
      ],
      [
        "outh",
        -1340.0
      ],
      [
        "▁including",
        -1341.0
      ],
      [
        "▁cost",
        -1342.0
      ],
      [
        "▁days",
        -1343.0
      ],
      [
        "▁check",
        -1344.0
      ],
      [
        "▁manag",
        -1345.0
      ],
      [
        "lement",
        -1346.0
      ],
      [
        "iven",
        -1347.0
      ],
      [
        "icle",
        -1348.0
      ],
      [
        "ling",
        -1349.0
      ],
      [
        "lex",
        -1350.0
      ],
      [
        "▁Comm",
        -1351.0
      ],
      [
        "▁less",
        -1352.0
      ],
      [
        "raw",
        -1353.0
      ],
      [
        "▁App",
        -1354.0
      ],
      [
        "ably",
        -1355.0
      ],
      [
        "▁sing",
        -1356.0
      ],
      [
        "▁mus",
        -1357.0
      ],
      [
        "ump",
        -1358.0
      ],
      [
        "▁▁▁",
        -1359.0
      ],
      [
        "▁local",
        -1360.0
      ],
      [
        "play",
        -1361.0
      ],
      [
        "ients",
        -1362.0
      ],
      [
        ";\r",
        -1363.0
      ],
      [
        "▁power",
        -1364.0
      ],
      [
        "af",
        -1365.0
      ],
      [
        "▁imp",
        -1366.0
      ],
      [
        "Ch",
        -1367.0
      ],
      [
        "ission",
        -1368.0
      ],
      [
        "ml",
        -1369.0
      ],
      [
        "ention",
        -1370.0
      ],
      [
        "▁change",
        -1371.0
      ],
      [
        "▁May",
        -1372.0
      ],
      [
        "ivid",
        -1373.0
      ],
      [
        "px",
        -1374.0
      ],
      [
        "roll",
        -1375.0
      ],
      [
        "Com",
        -1376.0
      ],
      [
        "aster",
        -1377.0
      ],
      [
        "▁chang",
        -1378.0
      ],
      [
        "▁win",
        -1379.0
      ],
      [
        "Res",
        -1380.0
      ],
      [
        "AM",
        -1381.0
      ],
      [
        "▁thought",
        -1382.0
      ],
      [
        "ories",
        -1383.0
      ],
      [
        "▁dr",
        -1384.0
      ],
      [
        "▁belie",
        -1385.0
      ],
      [
        "not",
        -1386.0
      ],
      [
        "▁light",
        -1387.0
      ],
      [
        "▁left",
        -1388.0
      ],
      [
        "iron",
        -1389.0
      ],
      [
        "▁job",
        -1390.0
      ],
      [
        "▁Do",
        -1391.0
      ],
      [
        "umm",
        -1392.0
      ],
      [
        "▁within",
        -1393.0
      ],
      [
        "List",
        -1394.0
      ],
      [
        "ane",
        -1395.0
      ],
      [
        "▁vers",
        -1396.0
      ],
      [
        "▁stat",
        -1397.0
      ],
      [
        "▁against",
        -1398.0
      ],
      [
        "▁room",
        -1399.0
      ],
      [
        "def",
        -1400.0
      ],
      [
        "alse",
        -1401.0
      ],
      [
        "LE",
        -1402.0
      ],
      [
        "▁Am",
        -1403.0
      ],
      [
        "▁dem",
        -1404.0
      ],
      [
        "rap",
        -1405.0
      ],
      [
        "▁Cont",
        -1406.0
      ],
      [
        "sw",
        -1407.0
      ],
      [
        "▁sw",
        -1408.0
      ],
      [
        "▁Gr",
        -1409.0
      ],
      [
        "▁pop",
        -1410.0
      ],
      [
        "ideo",
        -1411.0
      ],
      [
        "ley",
        -1412.0
      ],
      [
        "▁En",
        -1413.0
      ],
      [
        "▁thing",
        -1414.0
      ],
      [
        "\");",
        -1415.0
      ],
      [
        "AS",
        -1416.0
      ],
      [
        "▁following",
        -1417.0
      ],
      [
        "▁invest",
        -1418.0
      ],
      [
        "▁private",
        -1419.0
      ],
      [
        "itions",
        -1420.0
      ],
      [
        "▁away",
        -1421.0
      ],
      [
        "▁beh",
        -1422.0
      ],
      [
        "illion",
        -1423.0
      ],
      [
        "anks",
        -1424.0
      ],
      [
        "▁file",
        -1425.0
      ],
      [
        "ability",
        -1426.0
      ],
      [
        "▁working",
        -1427.0
      ],
      [
        "▁intern",
        -1428.0
      ],
      [
        "vert",
        -1429.0
      ],
      [
        "▁phot",
        -1430.0
      ],
      [
        "▁leg",
        -1431.0
      ],
      [
        "▁site",
        -1432.0
      ],
      [
        "▁writ",
        -1433.0
      ],
      [
        "▁term",
        -1434.0
      ],
      [
        "ently",
        -1435.0
      ],
      [
        "▁bro",
        -1436.0
      ],
      [
        "▁looking",
        -1437.0
      ],
      [
        "ised",
        -1438.0
      ],
      [
        "><",
        -1439.0
      ],
      [
        "▁why",
        -1440.0
      ],
      [
        "▁access",
        -1441.0
      ],
      [
        "▁event",
        -1442.0
      ],
      [
        "ey",
        -1443.0
      ],
      [
        "ift",
        -1444.0
      ],
      [
        "ains",
        -1445.0
      ],
      [
        "▁tem",
        -1446.0
      ],
      [
        "joy",
        -1447.0
      ],
      [
        "}\\",
        -1448.0
      ],
      [
        "}$",
        -1449.0
      ],
      [
        "ava",
        -1450.0
      ],
      [
        "por",
        -1451.0
      ],
      [
        "ots",
        -1452.0
      ],
      [
        "ches",
        -1453.0
      ],
      [
        "date",
        -1454.0
      ],
      [
        "▁Can",
        -1455.0
      ],
      [
        "Th",
        -1456.0
      ],
      [
        "▁ve",
        -1457.0
      ],
      [
        "▁One",
        -1458.0
      ],
      [
        "span",
        -1459.0
      ],
      [
        "ards",
        -1460.0
      ],
      [
        "ential",
        -1461.0
      ],
      [
        "this",
        -1462.0
      ],
      [
        "utes",
        -1463.0
      ],
      [
        "upp",
        -1464.0
      ],
      [
        "▁applic",
        -1465.0
      ],
      [
        "▁Des",
        -1466.0
      ],
      [
        "vious",
        -1467.0
      ],
      [
        "itional",
        -1468.0
      ],
      [
        "rop",
        -1469.0
      ],
      [
        "ateg",
        -1470.0
      ],
      [
        "\")",
        -1471.0
      ],
      [
        "▁aff",
        -1472.0
      ],
      [
        "It",
        -1473.0
      ],
      [
        "▁conn",
        -1474.0
      ],
      [
        "lish",
        -1475.0
      ],
      [
        "▁Christ",
        -1476.0
      ],
      [
        "hn",
        -1477.0
      ],
      [
        "▁area",
        -1478.0
      ],
      [
        "ike",
        -1479.0
      ],
      [
        "▁provide",
        -1480.0
      ],
      [
        "gle",
        -1481.0
      ],
      [
        "▁prom",
        -1482.0
      ],
      [
        "pped",
        -1483.0
      ],
      [
        "▁eng",
        -1484.0
      ],
      [
        "▁present",
        -1485.0
      ],
      [
        "▁pack",
        -1486.0
      ],
      [
        "oci",
        -1487.0
      ],
      [
        "▁cond",
        -1488.0
      ],
      [
        "▁Co",
        -1489.0
      ],
      [
        "▁law",
        -1490.0
      ],
      [
        "irl",
        -1491.0
      ],
      [
        "▁sal",
        -1492.0
      ],
      [
        "ready",
        -1493.0
      ],
      [
        "ending",
        -1494.0
      ],
      [
        "▁exc",
        -1495.0
      ],
      [
        "▁kind",
        -1496.0
      ],
      [
        "uild",
        -1497.0
      ],
      [
        "▁webs",
        -1498.0
      ],
      [
        "eter",
        -1499.0
      ],
      [
        "ids",
        -1500.0
      ],
      [
        "elt",
        -1501.0
      ],
      [
        "],",
        -1502.0
      ],
      [
        "▁today",
        -1503.0
      ],
      [
        "▁activ",
        -1504.0
      ],
      [
        "▁ben",
        -1505.0
      ],
      [
        "ands",
        -1506.0
      ],
      [
        "aces",
        -1507.0
      ],
      [
        "▁making",
        -1508.0
      ],
      [
        "▁rese",
        -1509.0
      ],
      [
        "▁group",
        -1510.0
      ],
      [
        "▁cap",
        -1511.0
      ],
      [
        "▁meet",
        -1512.0
      ],
      [
        "idd",
        -1513.0
      ],
      [
        "duct",
        -1514.0
      ],
      [
        "^{",
        -1515.0
      ],
      [
        "▁review",
        -1516.0
      ],
      [
        "ries",
        -1517.0
      ],
      [
        "erence",
        -1518.0
      ],
      [
        "ule",
        -1519.0
      ],
      [
        "▁Cent",
        -1520.0
      ],
      [
        "pping",
        -1521.0
      ],
      [
        "▁Br",
        -1522.0
      ],
      [
        "▁gover",
        -1523.0
      ],
      [
        "time",
        -1524.0
      ],
      [
        "IC",
        -1525.0
      ],
      [
        "▁says",
        -1526.0
      ],
      [
        "uper",
        -1527.0
      ],
      [
        "ister",
        -1528.0
      ],
      [
        "!!",
        -1529.0
      ],
      [
        "▁Car",
        -1530.0
      ],
      [
        "ency",
        -1531.0
      ],
      [
        "ength",
        -1532.0
      ],
      [
        "ills",
        -1533.0
      ],
      [
        "td",
        -1534.0
      ],
      [
        "ervice",
        -1535.0
      ],
      [
        "▁services",
        -1536.0
      ],
      [
        "▁hum",
        -1537.0
      ],
      [
        "▁key",
        -1538.0
      ],
      [
        "▁buy",
        -1539.0
      ],
      [
        "▁food",
        -1540.0
      ],
      [
        "▁dev",
        -1541.0
      ],
      [
        "▁create",
        -1542.0
      ],
      [
        "▁understand",
        -1543.0
      ],
      [
        "username",
        -1544.0
      ],
      [
        "▁special",
        -1545.0
      ],
      [
        "▁didn",
        -1546.0
      ],
      [
        "▁money",
        -1547.0
      ],
      [
        "▁allow",
        -1548.0
      ],
      [
        "▁children",
        -1549.0
      ],
      [
        "▁Che",
        -1550.0
      ],
      [
        "ler",
        -1551.0
      ],
      [
        "▁method",
        -1552.0
      ],
      [
        "▁bit",
        -1553.0
      ],
      [
        "▁course",
        -1554.0
      ],
      [
        "idth",
        -1555.0
      ],
      [
        "▁Eng",
        -1556.0
      ],
      [
        "une",
        -1557.0
      ],
      [
        "▁until",
        -1558.0
      ],
      [
        "ration",
        -1559.0
      ],
      [
        "comment",
        -1560.0
      ],
      [
        "dd",
        -1561.0
      ],
      [
        "arget",
        -1562.0
      ],
      [
        "lete",
        -1563.0
      ],
      [
        "▁done",
        -1564.0
      ],
      [
        "▁night",
        -1565.0
      ],
      [
        "uf",
        -1566.0
      ],
      [
        "▁size",
        -1567.0
      ],
      [
        "opy",
        -1568.0
      ],
      [
        "▁non",
        -1569.0
      ],
      [
        "ived",
        -1570.0
      ],
      [
        "gin",
        -1571.0
      ],
      [
        "ird",
        -1572.0
      ],
      [
        "▁ann",
        -1573.0
      ],
      [
        "▁four",
        -1574.0
      ],
      [
        "▁Im",
        -1575.0
      ],
      [
        "▁having",
        -1576.0
      ],
      [
        "▁times",
        -1577.0
      ],
      [
        "osed",
        -1578.0
      ],
      [
        "ams",
        -1579.0
      ],
      [
        "enn",
        -1580.0
      ],
      [
        "▁Ro",
        -1581.0
      ],
      [
        "mod",
        -1582.0
      ],
      [
        "ination",
        -1583.0
      ],
      [
        "ither",
        -1584.0
      ],
      [
        "▁page",
        -1585.0
      ],
      [
        "AC",
        -1586.0
      ],
      [
        "ique",
        -1587.0
      ],
      [
        "room",
        -1588.0
      ],
      [
        "▁hist",
        -1589.0
      ],
      [
        "ocus",
        -1590.0
      ],
      [
        "▁field",
        -1591.0
      ],
      [
        "▁final",
        -1592.0
      ],
      [
        "====",
        -1593.0
      ],
      [
        "▁men",
        -1594.0
      ],
      [
        "ively",
        -1595.0
      ],
      [
        "aper",
        -1596.0
      ],
      [
        "itor",
        -1597.0
      ],
      [
        "nment",
        -1598.0
      ],
      [
        "▁null",
        -1599.0
      ],
      [
        "▁success",
        -1600.0
      ],
      [
        "ury",
        -1601.0
      ],
      [
        "mber",
        -1602.0
      ],
      [
        "side",
        -1603.0
      ],
      [
        "▁record",
        -1604.0
      ],
      [
        "▁already",
        -1605.0
      ],
      [
        "▁tell",
        -1606.0
      ],
      [
        "▁Our",
        -1607.0
      ],
      [
        "▁static",
        -1608.0
      ],
      [
        "aterial",
        -1609.0
      ],
      [
        "▁By",
        -1610.0
      ],
      [
        "▁Ste",
        -1611.0
      ],
      [
        "Ar",
        -1612.0
      ],
      [
        "atures",
        -1613.0
      ],
      [
        "▁house",
        -1614.0
      ],
      [
        "htt",
        -1615.0
      ],
      [
        "▁Qu",
        -1616.0
      ],
      [
        "itive",
        -1617.0
      ],
      [
        "▁require",
        -1618.0
      ],
      [
        "▁self",
        -1619.0
      ],
      [
        "acy",
        -1620.0
      ],
      [
        "▁text",
        -1621.0
      ],
      [
        "str",
        -1622.0
      ],
      [
        "▁bas",
        -1623.0
      ],
      [
        "ips",
        -1624.0
      ],
      [
        "aring",
        -1625.0
      ],
      [
        "urs",
        -1626.0
      ],
      [
        "ED",
        -1627.0
      ],
      [
        "aps",
        -1628.0
      ],
      [
        "▁pract",
        -1629.0
      ],
      [
        "▁mar",
        -1630.0
      ],
      [
        "▁Not",
        -1631.0
      ],
      [
        "ai",
        -1632.0
      ],
      [
        "▁along",
        -1633.0
      ],
      [
        "fo",
        -1634.0
      ],
      [
        "ci",
        -1635.0
      ],
      [
        "▁enough",
        -1636.0
      ],
      [
        "ground",
        -1637.0
      ],
      [
        "▁mean",
        -1638.0
      ],
      [
        "▁Ass",
        -1639.0
      ],
      [
        "▁Ab",
        -1640.0
      ],
      [
        "▁problem",
        -1641.0
      ],
      [
        "Data",
        -1642.0
      ],
      [
        "▁past",
        -1643.0
      ],
      [
        "▁possible",
        -1644.0
      ],
      [
        "oice",
        -1645.0
      ],
      [
        "me",
        -1646.0
      ],
      [
        "▁lik",
        -1647.0
      ],
      [
        "▁These",
        -1648.0
      ],
      [
        "▁ret",
        -1649.0
      ],
      [
        "▁short",
        -1650.0
      ],
      [
        "▁enjoy",
        -1651.0
      ],
      [
        "▁side",
        -1652.0
      ],
      [
        "ney",
        -1653.0
      ],
      [
        "▁Your",
        -1654.0
      ],
      [
        "▁far",
        -1655.0
      ],
      [
        "alf",
        -1656.0
      ],
      [
        "iety",
        -1657.0
      ],
      [
        "data",
        -1658.0
      ],
      [
        "▁lim",
        -1659.0
      ],
      [
        "▁body",
        -1660.0
      ],
      [
        "▁impro",
        -1661.0
      ],
      [
        "ended",
        -1662.0
      ],
      [
        "iles",
        -1663.0
      ],
      [
        "cle",
        -1664.0
      ],
      [
        "▁▁▁▁▁▁▁▁▁▁▁▁▁▁",
        -1665.0
      ],
      [
        "▁toget",
        -1666.0
      ],
      [
        "▁together",
        -1667.0
      ],
      [
        "▁large",
        -1668.0
      ],
      [
        "reg",
        -1669.0
      ],
      [
        "fect",
        -1670.0
      ],
      [
        "▁account",
        -1671.0
      ],
      [
        "viron",
        -1672.0
      ],
      [
        "▁log",
        -1673.0
      ],
      [
        "▁net",
        -1674.0
      ],
      [
        "▁mult",
        -1675.0
      ],
      [
        "▁students",
        -1676.0
      ],
      [
        "▁creat",
        -1677.0
      ],
      [
        "▁actually",
        -1678.0
      ],
      [
        "▁example",
        -1679.0
      ],
      [
        "leg",
        -1680.0
      ],
      [
        "▁learn",
        -1681.0
      ],
      [
        "ung",
        -1682.0
      ],
      [
        "ising",
        -1683.0
      ],
      [
        "▁God",
        -1684.0
      ],
      [
        "▁typ",
        -1685.0
      ],
      [
        "▁University",
        -1686.0
      ],
      [
        "▁move",
        -1687.0
      ],
      [
        "ched",
        -1688.0
      ],
      [
        "▁dri",
        -1689.0
      ],
      [
        "veral",
        -1690.0
      ],
      [
        "▁talk",
        -1691.0
      ],
      [
        "▁saf",
        -1692.0
      ],
      [
        "▁getting",
        -1693.0
      ],
      [
        "▁visit",
        -1694.0
      ],
      [
        "▁ever",
        -1695.0
      ],
      [
        "ror",
        -1696.0
      ],
      [
        "ache",
        -1697.0
      ],
      [
        "iver",
        -1698.0
      ],
      [
        "uro",
        -1699.0
      ],
      [
        "▁po",
        -1700.0
      ],
      [
        "▁called",
        -1701.0
      ],
      [
        "▁though",
        -1702.0
      ],
      [
        "▁stre",
        -1703.0
      ],
      [
        "▁break",
        -1704.0
      ],
      [
        "ured",
        -1705.0
      ],
      [
        "▁doesn",
        -1706.0
      ],
      [
        "▁based",
        -1707.0
      ],
      [
        "▁Fl",
        -1708.0
      ],
      [
        "▁fac",
        -1709.0
      ],
      [
        "egin",
        -1710.0
      ],
      [
        "aim",
        -1711.0
      ],
      [
        "aff",
        -1712.0
      ],
      [
        "▁often",
        -1713.0
      ],
      [
        "▁anal",
        -1714.0
      ],
      [
        "▁Med",
        -1715.0
      ],
      [
        "▁certain",
        -1716.0
      ],
      [
        "▁doing",
        -1717.0
      ],
      [
        "ored",
        -1718.0
      ],
      [
        "bject",
        -1719.0
      ],
      [
        "Cont",
        -1720.0
      ],
      [
        "▁needs",
        -1721.0
      ],
      [
        "▁However",
        -1722.0
      ],
      [
        "conom",
        -1723.0
      ],
      [
        "▁After",
        -1724.0
      ],
      [
        "▁air",
        -1725.0
      ],
      [
        "▁makes",
        -1726.0
      ],
      [
        "(\\",
        -1727.0
      ],
      [
        "▁control",
        -1728.0
      ],
      [
        "▁pain",
        -1729.0
      ],
      [
        "▁mom",
        -1730.0
      ],
      [
        "▁employ",
        -1731.0
      ],
      [
        "▁▁▁▁▁",
        -1732.0
      ],
      [
        "resent",
        -1733.0
      ],
      [
        "ividual",
        -1734.0
      ],
      [
        "▁include",
        -1735.0
      ],
      [
        "ene",
        -1736.0
      ],
      [
        "ides",
        -1737.0
      ],
      [
        "head",
        -1738.0
      ],
      [
        "▁pot",
        -1739.0
      ],
      [
        "▁occ",
        -1740.0
      ],
      [
        "▁soft",
        -1741.0
      ],
      [
        "▁doc",
        -1742.0
      ],
      [
        "SE",
        -1743.0
      ],
      [
        "ajor",
        -1744.0
      ],
      [
        "▁works",
        -1745.0
      ],
      [
        "▁given",
        -1746.0
      ],
      [
        "new",
        -1747.0
      ],
      [
        "▁fore",
        -1748.0
      ],
      [
        "pre",
        -1749.0
      ],
      [
        "part",
        -1750.0
      ],
      [
        "face",
        -1751.0
      ],
      [
        "▁John",
        -1752.0
      ],
      [
        "▁object",
        -1753.0
      ],
      [
        "ances",
        -1754.0
      ],
      [
        "code",
        -1755.0
      ],
      [
        "uture",
        -1756.0
      ],
      [
        "type",
        -1757.0
      ],
      [
        "▁bring",
        -1758.0
      ],
      [
        "▁hot",
        -1759.0
      ],
      [
        "▁story",
        -1760.0
      ],
      [
        "▁arg",
        -1761.0
      ],
      [
        "book",
        -1762.0
      ],
      [
        "▁women",
        -1763.0
      ],
      [
        "cription",
        -1764.0
      ],
      [
        "uly",
        -1765.0
      ],
      [
        "▁easy",
        -1766.0
      ],
      [
        "▁*/",
        -1767.0
      ],
      [
        "▁cou",
        -1768.0
      ],
      [
        "▁treat",
        -1769.0
      ],
      [
        "▁charact",
        -1770.0
      ],
      [
        "▁website",
        -1771.0
      ],
      [
        "}}",
        -1772.0
      ],
      [
        "ources",
        -1773.0
      ],
      [
        "▁code",
        -1774.0
      ],
      [
        "irt",
        -1775.0
      ],
      [
        "▁consider",
        -1776.0
      ],
      [
        "fort",
        -1777.0
      ],
      [
        "rain",
        -1778.0
      ],
      [
        "▁least",
        -1779.0
      ],
      [
        "*/",
        -1780.0
      ],
      [
        "▁means",
        -1781.0
      ],
      [
        "string",
        -1782.0
      ],
      [
        "▁model",
        -1783.0
      ],
      [
        "▁indust",
        -1784.0
      ],
      [
        "▁Add",
        -1785.0
      ],
      [
        "ino",
        -1786.0
      ],
      [
        "▁specific",
        -1787.0
      ],
      [
        "icy",
        -1788.0
      ],
      [
        "ording",
        -1789.0
      ],
      [
        "▁Inst",
        -1790.0
      ],
      [
        "ograph",
        -1791.0
      ],
      [
        "key",
        -1792.0
      ],
      [
        "ouble",
        -1793.0
      ],
      [
        "▁hold",
        -1794.0
      ],
      [
        "▁=>",
        -1795.0
      ],
      [
        "▁System",
        -1796.0
      ],
      [
        "▁season",
        -1797.0
      ],
      [
        "▁orig",
        -1798.0
      ],
      [
        "▁trad",
        -1799.0
      ],
      [
        "▁fav",
        -1800.0
      ],
      [
        "▁More",
        -1801.0
      ],
      [
        "▁Dr",
        -1802.0
      ],
      [
        "▁string",
        -1803.0
      ],
      [
        "▁Gu",
        -1804.0
      ],
      [
        "▁inc",
        -1805.0
      ],
      [
        "▁)",
        -1806.0
      ],
      [
        "cont",
        -1807.0
      ],
      [
        "util",
        -1808.0
      ],
      [
        "rict",
        -1809.0
      ],
      [
        "▁offer",
        -1810.0
      ],
      [
        "▁become",
        -1811.0
      ],
      [
        "▁mind",
        -1812.0
      ],
      [
        "RO",
        -1813.0
      ],
      [
        "▁beaut",
        -1814.0
      ],
      [
        "▁low",
        -1815.0
      ],
      [
        "Cl",
        -1816.0
      ],
      [
        "▁Me",
        -1817.0
      ],
      [
        "▁others",
        -1818.0
      ],
      [
        "▁community",
        -1819.0
      ],
      [
        "ume",
        -1820.0
      ],
      [
        "▁tot",
        -1821.0
      ],
      [
        "ulation",
        -1822.0
      ],
      [
        "ional",
        -1823.0
      ],
      [
        "▁///",
        -1824.0
      ],
      [
        "most",
        -1825.0
      ],
      [
        "▁products",
        -1826.0
      ],
      [
        "▁quality",
        -1827.0
      ],
      [
        "vironment",
        -1828.0
      ],
      [
        "▁several",
        -1829.0
      ],
      [
        "▁once",
        -1830.0
      ],
      [
        "▁blog",
        -1831.0
      ],
      [
        "Col",
        -1832.0
      ],
      [
        "));",
        -1833.0
      ],
      [
        "▁prob",
        -1834.0
      ],
      [
        "):",
        -1835.0
      ],
      [
        "sel",
        -1836.0
      ],
      [
        "▁Pol",
        -1837.0
      ],
      [
        "osp",
        -1838.0
      ],
      [
        "▁step",
        -1839.0
      ],
      [
        "org",
        -1840.0
      ],
      [
        "umn",
        -1841.0
      ],
      [
        "▁wind",
        -1842.0
      ],
      [
        "IS",
        -1843.0
      ],
      [
        "cal",
        -1844.0
      ],
      [
        "▁Post",
        -1845.0
      ],
      [
        "▁Now",
        -1846.0
      ],
      [
        "▁String",
        -1847.0
      ],
      [
        "ION",
        -1848.0
      ],
      [
        "LL",
        -1849.0
      ],
      [
        "▁results",
        -1850.0
      ],
      [
        "********",
        -1851.0
      ],
      [
        "▁yet",
        -1852.0
      ],
      [
        "▁individual",
        -1853.0
      ],
      [
        "Get",
        -1854.0
      ],
      [
        "].",
        -1855.0
      ],
      [
        "▁struct",
        -1856.0
      ],
      [
        "▁research",
        -1857.0
      ],
      [
        "▁ess",
        -1858.0
      ],
      [
        "▁Get",
        -1859.0
      ],
      [
        "▁came",
        -1860.0
      ],
      [
        "pect",
        -1861.0
      ],
      [
        "▁!=",
        -1862.0
      ],
      [
        "wh",
        -1863.0
      ],
      [
        "size",
        -1864.0
      ],
      [
        "▁deal",
        -1865.0
      ],
      [
        "cer",
        -1866.0
      ],
      [
        "▁happen",
        -1867.0
      ],
      [
        "▁elect",
        -1868.0
      ],
      [
        "▁ey",
        -1869.0
      ],
      [
        "ones",
        -1870.0
      ],
      [
        "▁members",
        -1871.0
      ],
      [
        "▁country",
        -1872.0
      ],
      [
        "▁...",
        -1873.0
      ],
      [
        "log",
        -1874.0
      ],
      [
        "begin",
        -1875.0
      ],
      [
        "fer",
        -1876.0
      ],
      [
        "▁social",
        -1877.0
      ],
      [
        "isk",
        -1878.0
      ],
      [
        "▁content",
        -1879.0
      ],
      [
        "▁particular",
        -1880.0
      ],
      [
        "▁live",
        -1881.0
      ],
      [
        "▁cal",
        -1882.0
      ],
      [
        "urther",
        -1883.0
      ],
      [
        "▁%",
        -1884.0
      ],
      [
        "▁reason",
        -1885.0
      ],
      [
        "ests",
        -1886.0
      ],
      [
        "▁benef",
        -1887.0
      ],
      [
        "angu",
        -1888.0
      ],
      [
        "▁ident",
        -1889.0
      ],
      [
        "hing",
        -1890.0
      ],
      [
        "amb",
        -1891.0
      ],
      [
        "ux",
        -1892.0
      ],
      [
        "obal",
        -1893.0
      ],
      [
        "includ",
        -1894.0
      ],
      [
        "wards",
        -1895.0
      ],
      [
        "▁above",
        -1896.0
      ],
      [
        "To",
        -1897.0
      ],
      [
        "requ",
        -1898.0
      ],
      [
        "ffic",
        -1899.0
      ],
      [
        "▁focus",
        -1900.0
      ],
      [
        "▁offic",
        -1901.0
      ],
      [
        "▁Int",
        -1902.0
      ],
      [
        "lev",
        -1903.0
      ],
      [
        "unic",
        -1904.0
      ],
      [
        "▁ago",
        -1905.0
      ],
      [
        "▁quick",
        -1906.0
      ],
      [
        "oose",
        -1907.0
      ],
      [
        "utions",
        -1908.0
      ],
      [
        "▁below",
        -1909.0
      ],
      [
        "▁music",
        -1910.0
      ],
      [
        "CT",
        -1911.0
      ],
      [
        "▁video",
        -1912.0
      ],
      [
        "oogle",
        -1913.0
      ],
      [
        "▁Dis",
        -1914.0
      ],
      [
        "▁false",
        -1915.0
      ],
      [
        "▁Wor",
        -1916.0
      ],
      [
        "▁comes",
        -1917.0
      ],
      [
        "▁color",
        -1918.0
      ],
      [
        "raft",
        -1919.0
      ],
      [
        "▁init",
        -1920.0
      ],
      [
        "▁Here",
        -1921.0
      ],
      [
        "▁port",
        -1922.0
      ],
      [
        "▁price",
        -1923.0
      ],
      [
        "▁American",
        -1924.0
      ],
      [
        "▁space",
        -1925.0
      ],
      [
        "▁},",
        -1926.0
      ],
      [
        "▁Intern",
        -1927.0
      ],
      [
        "▁fund",
        -1928.0
      ],
      [
        "itch",
        -1929.0
      ],
      [
        "iful",
        -1930.0
      ],
      [
        "▁u",
        -1931.0
      ],
      [
        "▁major",
        -1932.0
      ],
      [
        "▁young",
        -1933.0
      ],
      [
        "ari",
        -1934.0
      ],
      [
        "▁flo",
        -1935.0
      ],
      [
        "now",
        -1936.0
      ],
      [
        "▁started",
        -1937.0
      ],
      [
        "ctor",
        -1938.0
      ],
      [
        "▁single",
        -1939.0
      ],
      [
        "ubl",
        -1940.0
      ],
      [
        "▁went",
        -1941.0
      ],
      [
        "icro",
        -1942.0
      ],
      [
        "▁Ed",
        -1943.0
      ],
      [
        "▁across",
        -1944.0
      ],
      [
        "▁п",
        -1945.0
      ],
      [
        "▁Jan",
        -1946.0
      ],
      [
        "▁took",
        -1947.0
      ],
      [
        "▁question",
        -1948.0
      ],
      [
        "ст",
        -1949.0
      ],
      [
        "iter",
        -1950.0
      ],
      [
        "param",
        -1951.0
      ],
      [
        "▁contact",
        -1952.0
      ],
      [
        "▁personal",
        -1953.0
      ],
      [
        "▁won",
        -1954.0
      ],
      [
        "ables",
        -1955.0
      ],
      [
        "▁user",
        -1956.0
      ],
      [
        "▁profession",
        -1957.0
      ],
      [
        "unch",
        -1958.0
      ],
      [
        "ster",
        -1959.0
      ],
      [
        "verage",
        -1960.0
      ],
      [
        "▁version",
        -1961.0
      ],
      [
        "▁vol",
        -1962.0
      ],
      [
        "ples",
        -1963.0
      ],
      [
        "▁perfect",
        -1964.0
      ],
      [
        "ilt",
        -1965.0
      ],
      [
        "▁study",
        -1966.0
      ],
      [
        "▁Em",
        -1967.0
      ],
      [
        "ression",
        -1968.0
      ],
      [
        "▁later",
        -1969.0
      ],
      [
        "iod",
        -1970.0
      ],
      [
        "AP",
        -1971.0
      ],
      [
        "eed",
        -1972.0
      ],
      [
        "action",
        -1973.0
      ],
      [
        "aken",
        -1974.0
      ],
      [
        "arning",
        -1975.0
      ],
      [
        "▁/*",
        -1976.0
      ],
      [
        "curity",
        -1977.0
      ],
      [
        "▁Tw",
        -1978.0
      ],
      [
        "ights",
        -1979.0
      ],
      [
        "list",
        -1980.0
      ],
      [
        "▁tre",
        -1981.0
      ],
      [
        "ification",
        -1982.0
      ],
      [
        "▁complet",
        -1983.0
      ],
      [
        "ilar",
        -1984.0
      ],
      [
        "▁comb",
        -1985.0
      ],
      [
        "▁discuss",
        -1986.0
      ],
      [
        "▁redu",
        -1987.0
      ],
      [
        "ison",
        -1988.0
      ],
      [
        "ager",
        -1989.0
      ],
      [
        "▁months",
        -1990.0
      ],
      [
        "▁someone",
        -1991.0
      ],
      [
        "oon",
        -1992.0
      ],
      [
        "▁wond",
        -1993.0
      ],
      [
        "▁print",
        -1994.0
      ],
      [
        "▁table",
        -1995.0
      ],
      [
        "▁Per",
        -1996.0
      ],
      [
        "agn",
        -1997.0
      ],
      [
        "ules",
        -1998.0
      ],
      [
        "ET",
        -1999.0
      ],
      [
        "▁cut",
        -2000.0
      ],
      [
        "▁invol",
        -2001.0
      ],
      [
        "urch",
        -2002.0
      ],
      [
        "▁enc",
        -2003.0
      ],
      [
        "▁strong",
        -2004.0
      ],
      [
        "▁issue",
        -2005.0
      ],
      [
        "order",
        -2006.0
      ],
      [
        "▁Reg",
        -2007.0
      ],
      [
        "▁opport",
        -2008.0
      ],
      [
        "View",
        -2009.0
      ],
      [
        "iday",
        -2010.0
      ],
      [
        "▁id",
        -2011.0
      ],
      [
        "▁educ",
        -2012.0
      ],
      [
        "▁development",
        -2013.0
      ],
      [
        "▁Min",
        -2014.0
      ],
      [
        "▁Thanks",
        -2015.0
      ],
      [
        "Value",
        -2016.0
      ],
      [
        "▁either",
        -2017.0
      ],
      [
        "▁city",
        -2018.0
      ],
      [
        "▁ant",
        -2019.0
      ],
      [
        "▁sound",
        -2020.0
      ],
      [
        "▁hours",
        -2021.0
      ],
      [
        "ball",
        -2022.0
      ],
      [
        "▁error",
        -2023.0
      ],
      [
        "arr",
        -2024.0
      ],
      [
        "▁future",
        -2025.0
      ],
      [
        "ports",
        -2026.0
      ],
      [
        "OT",
        -2027.0
      ],
      [
        "Set",
        -2028.0
      ],
      [
        "▁government",
        -2029.0
      ],
      [
        "Tr",
        -2030.0
      ],
      [
        "go",
        -2031.0
      ],
      [
        "▁material",
        -2032.0
      ],
      [
        "ibility",
        -2033.0
      ],
      [
        "▁begin",
        -2034.0
      ],
      [
        "ply",
        -2035.0
      ],
      [
        "▁web",
        -2036.0
      ],
      [
        "▁install",
        -2037.0
      ],
      [
        "▁Cal",
        -2038.0
      ],
      [
        "▁search",
        -2039.0
      ],
      [
        "▁Count",
        -2040.0
      ],
      [
        "▁hig",
        -2041.0
      ],
      [
        "ev",
        -2042.0
      ],
      [
        "my",
        -2043.0
      ],
      [
        "ends",
        -2044.0
      ],
      [
        "ians",
        -2045.0
      ],
      [
        "resh",
        -2046.0
      ],
      [
        "▁appear",
        -2047.0
      ],
      [
        "▁Just",
        -2048.0
      ],
      [
        "▁everything",
        -2049.0
      ],
      [
        "crib",
        -2050.0
      ],
      [
        "▁jo",
        -2051.0
      ],
      [
        "▁seen",
        -2052.0
      ],
      [
        "▁share",
        -2053.0
      ],
      [
        "▁range",
        -2054.0
      ],
      [
        "We",
        -2055.0
      ],
      [
        "inks",
        -2056.0
      ],
      [
        "UT",
        -2057.0
      ],
      [
        "▁tool",
        -2058.0
      ],
      [
        "ole",
        -2059.0
      ],
      [
        "yl",
        -2060.0
      ],
      [
        "rew",
        -2061.0
      ],
      [
        "▁anything",
        -2062.0
      ],
      [
        "▁walk",
        -2063.0
      ],
      [
        "▁position",
        -2064.0
      ],
      [
        "▁address",
        -2065.0
      ],
      [
        "oll",
        -2066.0
      ],
      [
        "▁camp",
        -2067.0
      ],
      [
        "▁ener",
        -2068.0
      ],
      [
        "▁face",
        -2069.0
      ],
      [
        "▁Gl",
        -2070.0
      ],
      [
        "▁idea",
        -2071.0
      ],
      [
        "▁clean",
        -2072.0
      ],
      [
        "})",
        -2073.0
      ],
      [
        "ops",
        -2074.0
      ],
      [
        "▁million",
        -2075.0
      ],
      [
        "▁Part",
        -2076.0
      ],
      [
        "▁stay",
        -2077.0
      ],
      [
        "▁heart",
        -2078.0
      ],
      [
        "▁store",
        -2079.0
      ],
      [
        "init",
        -2080.0
      ],
      [
        "▁repl",
        -2081.0
      ],
      [
        "▁expect",
        -2082.0
      ],
      [
        "ada",
        -2083.0
      ],
      [
        "▁whole",
        -2084.0
      ],
      [
        "idence",
        -2085.0
      ],
      [
        "▁girl",
        -2086.0
      ],
      [
        "ural",
        -2087.0
      ],
      [
        "inter",
        -2088.0
      ],
      [
        "▁please",
        -2089.0
      ],
      [
        "ental",
        -2090.0
      ],
      [
        "▁pret",
        -2091.0
      ],
      [
        "ony",
        -2092.0
      ],
      [
        "cript",
        -2093.0
      ],
      [
        "▁early",
        -2094.0
      ],
      [
        "▁cell",
        -2095.0
      ],
      [
        "().",
        -2096.0
      ],
      [
        "ING",
        -2097.0
      ],
      [
        "opt",
        -2098.0
      ],
      [
        "unction",
        -2099.0
      ],
      [
        "▁mot",
        -2100.0
      ],
      [
        "uation",
        -2101.0
      ],
      [
        "empt",
        -2102.0
      ],
      [
        "></",
        -2103.0
      ],
      [
        "▁From",
        -2104.0
      ],
      [
        "▁sugg",
        -2105.0
      ],
      [
        "▁pict",
        -2106.0
      ],
      [
        "▁Some",
        -2107.0
      ],
      [
        "▁press",
        -2108.0
      ],
      [
        "ourn",
        -2109.0
      ],
      [
        "▁seem",
        -2110.0
      ],
      [
        "ze",
        -2111.0
      ],
      [
        "AD",
        -2112.0
      ],
      [
        "на",
        -2113.0
      ],
      [
        "word",
        -2114.0
      ],
      [
        "▁due",
        -2115.0
      ],
      [
        ".\r",
        -2116.0
      ],
      [
        "▁{\r",
        -2117.0
      ],
      [
        "▁relations",
        -2118.0
      ],
      [
        "▁bed",
        -2119.0
      ],
      [
        "▁pie",
        -2120.0
      ],
      [
        "▁trying",
        -2121.0
      ],
      [
        "▁sex",
        -2122.0
      ],
      [
        "lege",
        -2123.0
      ],
      [
        "illed",
        -2124.0
      ],
      [
        "▁minutes",
        -2125.0
      ],
      [
        "ama",
        -2126.0
      ],
      [
        "rect",
        -2127.0
      ],
      [
        "earch",
        -2128.0
      ],
      [
        "▁known",
        -2129.0
      ],
      [
        "▁believe",
        -2130.0
      ],
      [
        "▁в",
        -2131.0
      ],
      [
        "▁link",
        -2132.0
      ],
      [
        "▁bad",
        -2133.0
      ],
      [
        "▁select",
        -2134.0
      ],
      [
        "▁Comp",
        -2135.0
      ],
      [
        "▁conc",
        -2136.0
      ],
      [
        "▁miss",
        -2137.0
      ],
      [
        "▁friends",
        -2138.0
      ],
      [
        "irm",
        -2139.0
      ],
      [
        "ners",
        -2140.0
      ],
      [
        "▁required",
        -2141.0
      ],
      [
        "ags",
        -2142.0
      ],
      [
        "▁parent",
        -2143.0
      ],
      [
        "rror",
        -2144.0
      ],
      [
        "▁compet",
        -2145.0
      ],
      [
        "▁black",
        -2146.0
      ],
      [
        "umber",
        -2147.0
      ],
      [
        "▁red",
        -2148.0
      ],
      [
        "ilities",
        -2149.0
      ],
      [
        "▁whether",
        -2150.0
      ],
      [
        "ites",
        -2151.0
      ],
      [
        "ele",
        -2152.0
      ],
      [
        "imate",
        -2153.0
      ],
      [
        "anies",
        -2154.0
      ],
      [
        "▁United",
        -2155.0
      ],
      [
        "ators",
        -2156.0
      ],
      [
        "▁ear",
        -2157.0
      ],
      [
        "eta",
        -2158.0
      ],
      [
        "▁Sm",
        -2159.0
      ],
      [
        "▁style",
        -2160.0
      ],
      [
        "▁options",
        -2161.0
      ],
      [
        "rc",
        -2162.0
      ],
      [
        "off",
        -2163.0
      ],
      [
        "atural",
        -2164.0
      ],
      [
        ");\r",
        -2165.0
      ],
      [
        "▁mor",
        -2166.0
      ],
      [
        "aur",
        -2167.0
      ],
      [
        "era",
        -2168.0
      ],
      [
        "▁City",
        -2169.0
      ],
      [
        "▁told",
        -2170.0
      ],
      [
        "ued",
        -2171.0
      ],
      [
        "roid",
        -2172.0
      ],
      [
        "▁fail",
        -2173.0
      ],
      [
        "icense",
        -2174.0
      ],
      [
        "test",
        -2175.0
      ],
      [
        "cing",
        -2176.0
      ],
      [
        "hers",
        -2177.0
      ],
      [
        "left",
        -2178.0
      ],
      [
        "▁econom",
        -2179.0
      ],
      [
        "▁human",
        -2180.0
      ],
      [
        "HE",
        -2181.0
      ],
      [
        "ocal",
        -2182.0
      ],
      [
        "file",
        -2183.0
      ],
      [
        "UR",
        -2184.0
      ],
      [
        "rown",
        -2185.0
      ],
      [
        "▁Mr",
        -2186.0
      ],
      [
        "▁org",
        -2187.0
      ],
      [
        "pecially",
        -2188.0
      ],
      [
        "▁abs",
        -2189.0
      ],
      [
        "▁Will",
        -2190.0
      ],
      [
        "----------------",
        -2191.0
      ],
      [
        "ili",
        -2192.0
      ],
      [
        "rm",
        -2193.0
      ],
      [
        "▁Mark",
        -2194.0
      ],
      [
        "▁•",
        -2195.0
      ],
      [
        "}{",
        -2196.0
      ],
      [
        "▁games",
        -2197.0
      ],
      [
        "▁Oct",
        -2198.0
      ],
      [
        "▁amount",
        -2199.0
      ],
      [
        "though",
        -2200.0
      ],
      [
        "▁Aut",
        -2201.0
      ],
      [
        "ried",
        -2202.0
      ],
      [
        "▁meas",
        -2203.0
      ],
      [
        "▁close",
        -2204.0
      ],
      [
        "ged",
        -2205.0
      ],
      [
        "▁State",
        -2206.0
      ],
      [
        "▁wait",
        -2207.0
      ],
      [
        "oved",
        -2208.0
      ],
      [
        "bt",
        -2209.0
      ],
      [
        "▁lat",
        -2210.0
      ],
      [
        "▁simple",
        -2211.0
      ],
      [
        "▁Read",
        -2212.0
      ],
      [
        "▁issues",
        -2213.0
      ],
      [
        "▁Art",
        -2214.0
      ],
      [
        "na",
        -2215.0
      ],
      [
        "▁Apr",
        -2216.0
      ],
      [
        "▁recomm",
        -2217.0
      ],
      [
        "js",
        -2218.0
      ],
      [
        "▁exist",
        -2219.0
      ],
      [
        "box",
        -2220.0
      ],
      [
        "▁chall",
        -2221.0
      ],
      [
        "▁watch",
        -2222.0
      ],
      [
        "ging",
        -2223.0
      ],
      [
        "▁taking",
        -2224.0
      ],
      [
        "ogn",
        -2225.0
      ],
      [
        "value",
        -2226.0
      ],
      [
        "Object",
        -2227.0
      ],
      [
        "label",
        -2228.0
      ],
      [
        "used",
        -2229.0
      ],
      [
        "▁news",
        -2230.0
      ],
      [
        "▁pri",
        -2231.0
      ],
      [
        "ender",
        -2232.0
      ],
      [
        "▁super",
        -2233.0
      ],
      [
        "_{\\",
        -2234.0
      ],
      [
        "▁author",
        -2235.0
      ],
      [
        "▁writing",
        -2236.0
      ],
      [
        "▁near",
        -2237.0
      ],
      [
        "sub",
        -2238.0
      ],
      [
        "▁cred",
        -2239.0
      ],
      [
        "DE",
        -2240.0
      ],
      [
        "▁common",
        -2241.0
      ],
      [
        "▁Pe",
        -2242.0
      ],
      [
        "▁School",
        -2243.0
      ],
      [
        "▁op",
        -2244.0
      ],
      [
        "▁Rep",
        -2245.0
      ],
      [
        "▁polit",
        -2246.0
      ],
      [
        "▁compl",
        -2247.0
      ],
      [
        "▁front",
        -2248.0
      ],
      [
        "▁El",
        -2249.0
      ],
      [
        "▁tax",
        -2250.0
      ],
      [
        "ра",
        -2251.0
      ],
      [
        "▁half",
        -2252.0
      ],
      [
        "▁Please",
        -2253.0
      ],
      [
        "ector",
        -2254.0
      ],
      [
        "▁purch",
        -2255.0
      ],
      [
        "▁Aug",
        -2256.0
      ],
      [
        "▁card",
        -2257.0
      ],
      [
        "▁request",
        -2258.0
      ],
      [
        "▁ens",
        -2259.0
      ],
      [
        "ape",
        -2260.0
      ],
      [
        "▁five",
        -2261.0
      ],
      [
        "umb",
        -2262.0
      ],
      [
        "▁path",
        -2263.0
      ],
      [
        "▁added",
        -2264.0
      ],
      [
        "▁quite",
        -2265.0
      ],
      [
        "▁answ",
        -2266.0
      ],
      [
        "anguage",
        -2267.0
      ],
      [
        "▁pick",
        -2268.0
      ],
      [
        "▁percent",
        -2269.0
      ],
      [
        "▁Ag",
        -2270.0
      ],
      [
        "atus",
        -2271.0
      ],
      [
        "url",
        -2272.0
      ],
      [
        "class",
        -2273.0
      ],
      [
        "ruction",
        -2274.0
      ],
      [
        "ude",
        -2275.0
      ],
      [
        "▁fall",
        -2276.0
      ],
      [
        "▁among",
        -2277.0
      ],
      [
        "ни",
        -2278.0
      ],
      [
        "ayer",
        -2279.0
      ],
      [
        "astic",
        -2280.0
      ],
      [
        "▁Stud",
        -2281.0
      ],
      [
        "ension",
        -2282.0
      ],
      [
        "ires",
        -2283.0
      ],
      [
        "▁beautiful",
        -2284.0
      ],
      [
        "▁Acc",
        -2285.0
      ],
      [
        "▁Euro",
        -2286.0
      ],
      [
        "▁features",
        -2287.0
      ],
      [
        "▁property",
        -2288.0
      ],
      [
        "▁Don",
        -2289.0
      ],
      [
        "▁Ge",
        -2290.0
      ],
      [
        "pm",
        -2291.0
      ],
      [
        "▁cult",
        -2292.0
      ],
      [
        "▁energy",
        -2293.0
      ],
      [
        "▁Par",
        -2294.0
      ],
      [
        "Exception",
        -2295.0
      ],
      [
        "▁Mc",
        -2296.0
      ],
      [
        "Mod",
        -2297.0
      ],
      [
        "▁Dep",
        -2298.0
      ],
      [
        "ummary",
        -2299.0
      ],
      [
        "▁hope",
        -2300.0
      ],
      [
        "irc",
        -2301.0
      ],
      [
        "▁probably",
        -2302.0
      ],
      [
        "olution",
        -2303.0
      ],
      [
        "')",
        -2304.0
      ],
      [
        "▁period",
        -2305.0
      ],
      [
        "Im",
        -2306.0
      ],
      [
        "▁action",
        -2307.0
      ],
      [
        "▁points",
        -2308.0
      ],
      [
        "fl",
        -2309.0
      ],
      [
        "▁almost",
        -2310.0
      ],
      [
        "▁ste",
        -2311.0
      ],
      [
        "abor",
        -2312.0
      ],
      [
        "▁environment",
        -2313.0
      ],
      [
        "asing",
        -2314.0
      ],
      [
        "rodu",
        -2315.0
      ],
      [
        "▁phys",
        -2316.0
      ],
      [
        "▁comput",
        -2317.0
      ],
      [
        "▁land",
        -2318.0
      ],
      [
        "▁respons",
        -2319.0
      ],
      [
        "▁target",
        -2320.0
      ],
      [
        "urance",
        -2321.0
      ],
      [
        "itted",
        -2322.0
      ],
      [
        "▁host",
        -2323.0
      ],
      [
        "▁While",
        -2324.0
      ],
      [
        "▁history",
        -2325.0
      ],
      [
        "inc",
        -2326.0
      ],
      [
        "▁aw",
        -2327.0
      ],
      [
        "elling",
        -2328.0
      ],
      [
        "obile",
        -2329.0
      ],
      [
        "▁larg",
        -2330.0
      ],
      [
        "▁needed",
        -2331.0
      ],
      [
        "Text",
        -2332.0
      ],
      [
        "▁claim",
        -2333.0
      ],
      [
        "bar",
        -2334.0
      ],
      [
        "var",
        -2335.0
      ],
      [
        "do",
        -2336.0
      ],
      [
        "selves",
        -2337.0
      ],
      [
        "▁crit",
        -2338.0
      ],
      [
        "▁series",
        -2339.0
      ],
      [
        "ormal",
        -2340.0
      ],
      [
        "▁track",
        -2341.0
      ],
      [
        "▁further",
        -2342.0
      ],
      [
        "Sh",
        -2343.0
      ],
      [
        "▁questions",
        -2344.0
      ],
      [
        "▁IN",
        -2345.0
      ],
      [
        "▁/**",
        -2346.0
      ],
      [
        "iting",
        -2347.0
      ],
      [
        "pper",
        -2348.0
      ],
      [
        "▁industry",
        -2349.0
      ],
      [
        "▁hom",
        -2350.0
      ],
      [
        "▁clear",
        -2351.0
      ],
      [
        "▁everyone",
        -2352.0
      ],
      [
        "icult",
        -2353.0
      ],
      [
        "aving",
        -2354.0
      ],
      [
        "▁&&",
        -2355.0
      ],
      [
        "▁pretty",
        -2356.0
      ],
      [
        "ided",
        -2357.0
      ],
      [
        "frac",
        -2358.0
      ],
      [
        "ained",
        -2359.0
      ],
      [
        "▁image",
        -2360.0
      ],
      [
        "ana",
        -2361.0
      ],
      [
        "ny",
        -2362.0
      ],
      [
        "▁email",
        -2363.0
      ],
      [
        "▁sent",
        -2364.0
      ],
      [
        "▁bar",
        -2365.0
      ],
      [
        "▁York",
        -2366.0
      ],
      [
        "▁?",
        -2367.0
      ],
      [
        "ancial",
        -2368.0
      ],
      [
        "▁comment",
        -2369.0
      ],
      [
        ")\r",
        -2370.0
      ],
      [
        "▁media",
        -2371.0
      ],
      [
        "▁vi",
        -2372.0
      ],
      [
        "gress",
        -2373.0
      ],
      [
        "inary",
        -2374.0
      ],
      [
        "da",
        -2375.0
      ],
      [
        "lick",
        -2376.0
      ],
      [
        "▁wanted",
        -2377.0
      ],
      [
        "aid",
        -2378.0
      ],
      [
        "▁white",
        -2379.0
      ],
      [
        "ledge",
        -2380.0
      ],
      [
        "▁:=",
        -2381.0
      ],
      [
        "▁Bar",
        -2382.0
      ],
      [
        "▁building",
        -2383.0
      ],
      [
        "Re",
        -2384.0
      ],
      [
        "eral",
        -2385.0
      ],
      [
        "▁addition",
        -2386.0
      ],
      [
        "▁words",
        -2387.0
      ],
      [
        "▁however",
        -2388.0
      ],
      [
        "clus",
        -2389.0
      ],
      [
        "▁represent",
        -2390.0
      ],
      [
        "artment",
        -2391.0
      ],
      [
        "IL",
        -2392.0
      ],
      [
        "mp",
        -2393.0
      ],
      [
        "ysis",
        -2394.0
      ],
      [
        "....",
        -2395.0
      ],
      [
        "▁Act",
        -2396.0
      ],
      [
        "ille",
        -2397.0
      ],
      [
        "oud",
        -2398.0
      ],
      [
        "▁South",
        -2399.0
      ],
      [
        "▁date",
        -2400.0
      ],
      [
        "include",
        -2401.0
      ],
      [
        "▁companies",
        -2402.0
      ],
      [
        "▁previous",
        -2403.0
      ],
      [
        "▁Pre",
        -2404.0
      ],
      [
        "html",
        -2405.0
      ],
      [
        "▁Then",
        -2406.0
      ],
      [
        "▁entire",
        -2407.0
      ],
      [
        "▁favor",
        -2408.0
      ],
      [
        "▁Cor",
        -2409.0
      ],
      [
        "chie",
        -2410.0
      ],
      [
        "ummer",
        -2411.0
      ],
      [
        "▁**",
        -2412.0
      ],
      [
        "▁signific",
        -2413.0
      ],
      [
        "▁character",
        -2414.0
      ],
      [
        "▁rather",
        -2415.0
      ],
      [
        ".)",
        -2416.0
      ],
      [
        "OM",
        -2417.0
      ],
      [
        "▁Us",
        -2418.0
      ],
      [
        "▁His",
        -2419.0
      ],
      [
        "▁isn",
        -2420.0
      ],
      [
        "const",
        -2421.0
      ],
      [
        "▁High",
        -2422.0
      ],
      [
        "▁nothing",
        -2423.0
      ],
      [
        "▁training",
        -2424.0
      ],
      [
        "\";",
        -2425.0
      ],
      [
        "▁mach",
        -2426.0
      ],
      [
        "▁Let",
        -2427.0
      ],
      [
        "▁aud",
        -2428.0
      ],
      [
        "▁film",
        -2429.0
      ],
      [
        "ко",
        -2430.0
      ],
      [
        "ta",
        -2431.0
      ],
      [
        "ivity",
        -2432.0
      ],
      [
        "▁seems",
        -2433.0
      ],
      [
        "▁simply",
        -2434.0
      ],
      [
        "▁various",
        -2435.0
      ],
      [
        "▁World",
        -2436.0
      ],
      [
        "iple",
        -2437.0
      ],
      [
        "▁Fin",
        -2438.0
      ],
      [
        "▁soon",
        -2439.0
      ],
      [
        "ival",
        -2440.0
      ],
      [
        "chen",
        -2441.0
      ],
      [
        "ribut",
        -2442.0
      ],
      [
        "ribute",
        -2443.0
      ],
      [
        "▁determ",
        -2444.0
      ],
      [
        "▁source",
        -2445.0
      ],
      [
        "cast",
        -2446.0
      ],
      [
        "▁travel",
        -2447.0
      ],
      [
        "▁improve",
        -2448.0
      ],
      [
        "▁Pres",
        -2449.0
      ],
      [
        "itten",
        -2450.0
      ],
      [
        "body",
        -2451.0
      ],
      [
        "▁Aust",
        -2452.0
      ],
      [
        "IM",
        -2453.0
      ],
      [
        "▁dig",
        -2454.0
      ],
      [
        "ties",
        -2455.0
      ],
      [
        "▁taken",
        -2456.0
      ],
      [
        "▁der",
        -2457.0
      ],
      [
        "ponse",
        -2458.0
      ],
      [
        "mit",
        -2459.0
      ],
      [
        "Un",
        -2460.0
      ],
      [
        "▁necess",
        -2461.0
      ],
      [
        "▁National",
        -2462.0
      ],
      [
        "▁relationship",
        -2463.0
      ],
      [
        "▁similar",
        -2464.0
      ],
      [
        "▁changes",
        -2465.0
      ],
      [
        "enc",
        -2466.0
      ],
      [
        "ilit",
        -2467.0
      ],
      [
        "plement",
        -2468.0
      ],
      [
        "rug",
        -2469.0
      ],
      [
        "istic",
        -2470.0
      ],
      [
        "▁complete",
        -2471.0
      ],
      [
        "ensive",
        -2472.0
      ],
      [
        "▁details",
        -2473.0
      ],
      [
        "but",
        -2474.0
      ],
      [
        "imal",
        -2475.0
      ],
      [
        "▁software",
        -2476.0
      ],
      [
        ")$",
        -2477.0
      ],
      [
        "▁ver",
        -2478.0
      ],
      [
        "▁Off",
        -2479.0
      ],
      [
        "но",
        -2480.0
      ],
      [
        "rel",
        -2481.0
      ],
      [
        "▁clos",
        -2482.0
      ],
      [
        "▁article",
        -2483.0
      ],
      [
        "field",
        -2484.0
      ],
      [
        "▁Of",
        -2485.0
      ],
      [
        "▁especially",
        -2486.0
      ],
      [
        "US",
        -2487.0
      ],
      [
        "▁coming",
        -2488.0
      ],
      [
        "▁March",
        -2489.0
      ],
      [
        "▁document",
        -2490.0
      ],
      [
        "▁suggest",
        -2491.0
      ],
      [
        "▁fix",
        -2492.0
      ],
      [
        "▁general",
        -2493.0
      ],
      [
        "▁foot",
        -2494.0
      ],
      [
        "ram",
        -2495.0
      ],
      [
        "ises",
        -2496.0
      ],
      [
        "▁performance",
        -2497.0
      ],
      [
        "ample",
        -2498.0
      ],
      [
        "▁message",
        -2499.0
      ],
      [
        "atform",
        -2500.0
      ],
      [
        "▁North",
        -2501.0
      ],
      [
        "];",
        -2502.0
      ],
      [
        "____",
        -2503.0
      ],
      [
        "▁asked",
        -2504.0
      ],
      [
        "▁total",
        -2505.0
      ],
      [
        "edd",
        -2506.0
      ],
      [
        "By",
        -2507.0
      ],
      [
        "onse",
        -2508.0
      ],
      [
        "itting",
        -2509.0
      ],
      [
        "aging",
        -2510.0
      ],
      [
        "hat",
        -2511.0
      ],
      [
        "▁likely",
        -2512.0
      ],
      [
        "uration",
        -2513.0
      ],
      [
        "▁age",
        -2514.0
      ],
      [
        "▁с",
        -2515.0
      ],
      [
        "▁throw",
        -2516.0
      ],
      [
        "▁insp",
        -2517.0
      ],
      [
        "▁box",
        -2518.0
      ],
      [
        "▁Ser",
        -2519.0
      ],
      [
        "▁Sept",
        -2520.0
      ],
      [
        "ully",
        -2521.0
      ],
      [
        "▁<<",
        -2522.0
      ],
      [
        "▁running",
        -2523.0
      ],
      [
        "▁Mon",
        -2524.0
      ],
      [
        "ottom",
        -2525.0
      ],
      [
        "▁Tra",
        -2526.0
      ],
      [
        "▁write",
        -2527.0
      ],
      [
        "▁Europe",
        -2528.0
      ],
      [
        "▁Park",
        -2529.0
      ],
      [
        "▁paper",
        -2530.0
      ],
      [
        "epend",
        -2531.0
      ],
      [
        "▁sat",
        -2532.0
      ],
      [
        "++",
        -2533.0
      ],
      [
        "eq",
        -2534.0
      ],
      [
        "▁download",
        -2535.0
      ],
      [
        "▁offers",
        -2536.0
      ],
      [
        "▁Feb",
        -2537.0
      ],
      [
        "▁describ",
        -2538.0
      ],
      [
        "https",
        -2539.0
      ],
      [
        "uary",
        -2540.0
      ],
      [
        "ees",
        -2541.0
      ],
      [
        "▁associ",
        -2542.0
      ],
      [
        "▁June",
        -2543.0
      ],
      [
        "▁application",
        -2544.0
      ],
      [
        "ouch",
        -2545.0
      ],
      [
        "▁response",
        -2546.0
      ],
      [
        "aged",
        -2547.0
      ],
      [
        "▁difficult",
        -2548.0
      ],
      [
        "aching",
        -2549.0
      ],
      [
        "▁display",
        -2550.0
      ],
      [
        "▁continue",
        -2551.0
      ],
      [
        "ро",
        -2552.0
      ],
      [
        "▁La",
        -2553.0
      ],
      [
        "ufact",
        -2554.0
      ],
      [
        "▁etc",
        -2555.0
      ],
      [
        "▁Free",
        -2556.0
      ],
      [
        "▁problems",
        -2557.0
      ],
      [
        "▁management",
        -2558.0
      ],
      [
        "eks",
        -2559.0
      ],
      [
        "▁option",
        -2560.0
      ],
      [
        "▁flow",
        -2561.0
      ],
      [
        "▁matter",
        -2562.0
      ],
      [
        "▁dom",
        -2563.0
      ],
      [
        "ithub",
        -2564.0
      ],
      [
        "▁base",
        -2565.0
      ],
      [
        "▁forward",
        -2566.0
      ],
      [
        "▁fig",
        -2567.0
      ],
      [
        "▁wonder",
        -2568.0
      ],
      [
        "En",
        -2569.0
      ],
      [
        "oring",
        -2570.0
      ],
      [
        "aced",
        -2571.0
      ],
      [
        "▁Up",
        -2572.0
      ],
      [
        "gl",
        -2573.0
      ],
      [
        "▁cook",
        -2574.0
      ],
      [
        "▁accept",
        -2575.0
      ],
      [
        "lean",
        -2576.0
      ],
      [
        "▁rad",
        -2577.0
      ],
      [
        "▁April",
        -2578.0
      ],
      [
        "ript",
        -2579.0
      ],
      [
        "▁created",
        -2580.0
      ],
      [
        "board",
        -2581.0
      ],
      [
        "▁mass",
        -2582.0
      ],
      [
        "▁sym",
        -2583.0
      ],
      [
        "IG",
        -2584.0
      ],
      [
        "▁vari",
        -2585.0
      ],
      [
        "▁looks",
        -2586.0
      ],
      [
        "▁Sim",
        -2587.0
      ],
      [
        "▁Gener",
        -2588.0
      ],
      [
        "▁cannot",
        -2589.0
      ],
      [
        "▁oil",
        -2590.0
      ],
      [
        "unk",
        -2591.0
      ],
      [
        "File",
        -2592.0
      ],
      [
        "bf",
        -2593.0
      ],
      [
        "ham",
        -2594.0
      ],
      [
        "etimes",
        -2595.0
      ],
      [
        "▁provided",
        -2596.0
      ],
      [
        "▁max",
        -2597.0
      ],
      [
        "yd",
        -2598.0
      ],
      [
        "▁effort",
        -2599.0
      ],
      [
        "AG",
        -2600.0
      ],
      [
        "OL",
        -2601.0
      ],
      [
        "▁technology",
        -2602.0
      ],
      [
        "▁living",
        -2603.0
      ],
      [
        "▁Are",
        -2604.0
      ],
      [
        "▁extra",
        -2605.0
      ],
      [
        "reed",
        -2606.0
      ],
      [
        "▁events",
        -2607.0
      ],
      [
        "Requ",
        -2608.0
      ],
      [
        "▁reading",
        -2609.0
      ],
      [
        "▁gen",
        -2610.0
      ],
      [
        "▁ways",
        -2611.0
      ],
      [
        "top",
        -2612.0
      ],
      [
        "Par",
        -2613.0
      ],
      [
        "OS",
        -2614.0
      ],
      [
        "ades",
        -2615.0
      ],
      [
        "▁List",
        -2616.0
      ],
      [
        "rite",
        -2617.0
      ],
      [
        "▁stop",
        -2618.0
      ],
      [
        "▁via",
        -2619.0
      ],
      [
        "Add",
        -2620.0
      ],
      [
        "▁particip",
        -2621.0
      ],
      [
        "▁moment",
        -2622.0
      ],
      [
        "▁background",
        -2623.0
      ],
      [
        "ales",
        -2624.0
      ],
      [
        "cret",
        -2625.0
      ],
      [
        "▁role",
        -2626.0
      ],
      [
        "start",
        -2627.0
      ],
      [
        "▁feature",
        -2628.0
      ],
      [
        "▁inside",
        -2629.0
      ],
      [
        "medi",
        -2630.0
      ],
      [
        "itter",
        -2631.0
      ],
      [
        "▁phone",
        -2632.0
      ],
      [
        "Time",
        -2633.0
      ],
      [
        "(),",
        -2634.0
      ],
      [
        "▁areas",
        -2635.0
      ],
      [
        "▁Mod",
        -2636.0
      ],
      [
        "izing",
        -2637.0
      ],
      [
        "iction",
        -2638.0
      ],
      [
        "iddle",
        -2639.0
      ],
      [
        "▁yourself",
        -2640.0
      ],
      [
        "ober",
        -2641.0
      ],
      [
        "▁provides",
        -2642.0
      ],
      [
        "▁significant",
        -2643.0
      ],
      [
        "▁nice",
        -2644.0
      ],
      [
        "▁First",
        -2645.0
      ],
      [
        "▁Dav",
        -2646.0
      ],
      [
        "▁que",
        -2647.0
      ],
      [
        "▁shows",
        -2648.0
      ],
      [
        "▁office",
        -2649.0
      ],
      [
        "▁subject",
        -2650.0
      ],
      [
        "▁bo",
        -2651.0
      ],
      [
        "▁staff",
        -2652.0
      ],
      [
        "../",
        -2653.0
      ],
      [
        "uk",
        -2654.0
      ],
      [
        "▁customers",
        -2655.0
      ],
      [
        "Int",
        -2656.0
      ],
      [
        "▁word",
        -2657.0
      ],
      [
        "▁Day",
        -2658.0
      ],
      [
        "▁Health",
        -2659.0
      ],
      [
        "▁sle",
        -2660.0
      ],
      [
        "imum",
        -2661.0
      ],
      [
        "pi",
        -2662.0
      ],
      [
        "Error",
        -2663.0
      ],
      [
        "▁respect",
        -2664.0
      ],
      [
        "▁behind",
        -2665.0
      ],
      [
        "▁block",
        -2666.0
      ],
      [
        "());",
        -2667.0
      ],
      [
        "▁exact",
        -2668.0
      ],
      [
        "fully",
        -2669.0
      ],
      [
        "unities",
        -2670.0
      ],
      [
        "user",
        -2671.0
      ],
      [
        "▁coun",
        -2672.0
      ],
      [
        "▁kids",
        -2673.0
      ],
      [
        "▁July",
        -2674.0
      ],
      [
        "ached",
        -2675.0
      ],
      [
        "down",
        -2676.0
      ],
      [
        "oke",
        -2677.0
      ],
      [
        "▁||",
        -2678.0
      ],
      [
        "ecut",
        -2679.0
      ],
      [
        "▁dam",
        -2680.0
      ],
      [
        "▁}\r",
        -2681.0
      ],
      [
        "uth",
        -2682.0
      ],
      [
        "▁match",
        -2683.0
      ],
      [
        "Ind",
        -2684.0
      ],
      [
        "▁anyone",
        -2685.0
      ],
      [
        "ese",
        -2686.0
      ],
      [
        "▁infl",
        -2687.0
      ],
      [
        "rs",
        -2688.0
      ],
      [
        "▁six",
        -2689.0
      ],
      [
        "print",
        -2690.0
      ],
      [
        "▁See",
        -2691.0
      ],
      [
        "▁fire",
        -2692.0
      ],
      [
        "▁cover",
        -2693.0
      ],
      [
        "▁States",
        -2694.0
      ],
      [
        "▁Af",
        -2695.0
      ],
      [
        "idge",
        -2696.0
      ],
      [
        "▁experien",
        -2697.0
      ],
      [
        "▁instead",
        -2698.0
      ],
      [
        "▁rate",
        -2699.0
      ],
      [
        "▁Her",
        -2700.0
      ],
      [
        "light",
        -2701.0
      ],
      [
        "weet",
        -2702.0
      ],
      [
        "[]",
        -2703.0
      ],
      [
        "cite",
        -2704.0
      ],
      [
        "nder",
        -2705.0
      ],
      [
        "azing",
        -2706.0
      ],
      [
        "oph",
        -2707.0
      ],
      [
        "▁Out",
        -2708.0
      ],
      [
        "▁assist",
        -2709.0
      ],
      [
        "minist",
        -2710.0
      ],
      [
        "coming",
        -2711.0
      ],
      [
        "anced",
        -2712.0
      ],
      [
        "UN",
        -2713.0
      ],
      [
        "▁Sch",
        -2714.0
      ],
      [
        "reet",
        -2715.0
      ],
      [
        "aily",
        -2716.0
      ],
      [
        "▁takes",
        -2717.0
      ],
      [
        "EM",
        -2718.0
      ],
      [
        "ij",
        -2719.0
      ],
      [
        "▁regard",
        -2720.0
      ],
      [
        "▁contain",
        -2721.0
      ],
      [
        "github",
        -2722.0
      ],
      [
        "////",
        -2723.0
      ],
      [
        "▁hon",
        -2724.0
      ],
      [
        "▁Sw",
        -2725.0
      ],
      [
        "▁network",
        -2726.0
      ],
      [
        "ety",
        -2727.0
      ],
      [
        "▁href",
        -2728.0
      ],
      [
        "ament",
        -2729.0
      ],
      [
        "▁coll",
        -2730.0
      ],
      [
        "▁cas",
        -2731.0
      ],
      [
        "uge",
        -2732.0
      ],
      [
        "▁dest",
        -2733.0
      ],
      [
        "igned",
        -2734.0
      ],
      [
        "▁achie",
        -2735.0
      ],
      [
        "▁third",
        -2736.0
      ],
      [
        "▁Soc",
        -2737.0
      ],
      [
        "ocation",
        -2738.0
      ],
      [
        "apt",
        -2739.0
      ],
      [
        "▁prim",
        -2740.0
      ],
      [
        "error",
        -2741.0
      ],
      [
        "▁West",
        -2742.0
      ],
      [
        "path",
        -2743.0
      ],
      [
        "pha",
        -2744.0
      ],
      [
        "define",
        -2745.0
      ],
      [
        "atter",
        -2746.0
      ],
      [
        "net",
        -2747.0
      ],
      [
        "perty",
        -2748.0
      ],
      [
        "aker",
        -2749.0
      ],
      [
        "overed",
        -2750.0
      ],
      [
        "ief",
        -2751.0
      ],
      [
        "▁outside",
        -2752.0
      ],
      [
        "year",
        -2753.0
      ],
      [
        "▁Center",
        -2754.0
      ],
      [
        "orage",
        -2755.0
      ],
      [
        "▁Red",
        -2756.0
      ],
      [
        "▁original",
        -2757.0
      ],
      [
        "▁professional",
        -2758.0
      ],
      [
        "aul",
        -2759.0
      ],
      [
        "▁sn",
        -2760.0
      ],
      [
        "PE",
        -2761.0
      ],
      [
        "▁risk",
        -2762.0
      ],
      [
        "▁happy",
        -2763.0
      ],
      [
        "▁loss",
        -2764.0
      ],
      [
        "uments",
        -2765.0
      ],
      [
        "ublished",
        -2766.0
      ],
      [
        "urg",
        -2767.0
      ],
      [
        "▁board",
        -2768.0
      ],
      [
        "▁expected",
        -2769.0
      ],
      [
        "▁ground",
        -2770.0
      ],
      [
        "▁Pat",
        -2771.0
      ],
      [
        "ica",
        -2772.0
      ],
      [
        "▁htt",
        -2773.0
      ],
      [
        "agement",
        -2774.0
      ],
      [
        "▁Cons",
        -2775.0
      ],
      [
        "▁Sk",
        -2776.0
      ],
      [
        "▁Also",
        -2777.0
      ],
      [
        "Key",
        -2778.0
      ],
      [
        "ENT",
        -2779.0
      ],
      [
        "mon",
        -2780.0
      ],
      [
        "▁});",
        -2781.0
      ],
      [
        "▁popular",
        -2782.0
      ],
      [
        "▁according",
        -2783.0
      ],
      [
        "▁copy",
        -2784.0
      ],
      [
        "pose",
        -2785.0
      ],
      [
        "bb",
        -2786.0
      ],
      [
        "icles",
        -2787.0
      ],
      [
        "▁impact",
        -2788.0
      ],
      [
        "▁AN",
        -2789.0
      ],
      [
        "▁road",
        -2790.0
      ],
      [
        "▁increase",
        -2791.0
      ],
      [
        "▁natural",
        -2792.0
      ],
      [
        "plate",
        -2793.0
      ],
      [
        "▁Black",
        -2794.0
      ],
      [
        "▁couple",
        -2795.0
      ],
      [
        "no",
        -2796.0
      ],
      [
        "AB",
        -2797.0
      ],
      [
        "erc",
        -2798.0
      ],
      [
        "▁sho",
        -2799.0
      ],
      [
        "serv",
        -2800.0
      ],
      [
        "▁names",
        -2801.0
      ],
      [
        "▁leave",
        -2802.0
      ],
      [
        "SS",
        -2803.0
      ],
      [
        "▁load",
        -2804.0
      ],
      [
        "▁higher",
        -2805.0
      ],
      [
        "▁Bro",
        -2806.0
      ],
      [
        "▁longer",
        -2807.0
      ],
      [
        "▁weeks",
        -2808.0
      ],
      [
        "▁worth",
        -2809.0
      ],
      [
        "tes",
        -2810.0
      ],
      [
        "mat",
        -2811.0
      ],
      [
        "▁double",
        -2812.0
      ],
      [
        "Test",
        -2813.0
      ],
      [
        "▁click",
        -2814.0
      ],
      [
        "▁fast",
        -2815.0
      ],
      [
        "Se",
        -2816.0
      ],
      [
        "▁consum",
        -2817.0
      ],
      [
        "▁County",
        -2818.0
      ],
      [
        "▁party",
        -2819.0
      ],
      [
        "▁users",
        -2820.0
      ],
      [
        "▁den",
        -2821.0
      ],
      [
        "▁std",
        -2822.0
      ],
      [
        "roups",
        -2823.0
      ],
      [
        "nes",
        -2824.0
      ],
      [
        "▁items",
        -2825.0
      ],
      [
        "▁title",
        -2826.0
      ],
      [
        "▁};",
        -2827.0
      ],
      [
        "▁center",
        -2828.0
      ],
      [
        "▁saw",
        -2829.0
      ],
      [
        "▁usually",
        -2830.0
      ],
      [
        "▁choose",
        -2831.0
      ],
      [
        "▁death",
        -2832.0
      ],
      [
        ">\r",
        -2833.0
      ],
      [
        "##",
        -2834.0
      ],
      [
        "▁cam",
        -2835.0
      ],
      [
        "▁dog",
        -2836.0
      ],
      [
        "▁hol",
        -2837.0
      ],
      [
        "odes",
        -2838.0
      ],
      [
        "▁engine",
        -2839.0
      ],
      [
        "ternal",
        -2840.0
      ],
      [
        "tings",
        -2841.0
      ],
      [
        "met",
        -2842.0
      ],
      [
        "▁pan",
        -2843.0
      ],
      [
        "Pl",
        -2844.0
      ],
      [
        "▁song",
        -2845.0
      ],
      [
        "udd",
        -2846.0
      ],
      [
        "▁terms",
        -2847.0
      ],
      [
        "▁unique",
        -2848.0
      ],
      [
        "▁Ne",
        -2849.0
      ],
      [
        "▁member",
        -2850.0
      ],
      [
        "Info",
        -2851.0
      ],
      [
        "▁war",
        -2852.0
      ],
      [
        "cial",
        -2853.0
      ],
      [
        "State",
        -2854.0
      ],
      [
        "▁Thank",
        -2855.0
      ],
      [
        "▁August",
        -2856.0
      ],
      [
        "▁sense",
        -2857.0
      ],
      [
        "amed",
        -2858.0
      ],
      [
        "airs",
        -2859.0
      ],
      [
        "unt",
        -2860.0
      ],
      [
        "state",
        -2861.0
      ],
      [
        "sy",
        -2862.0
      ],
      [
        "▁House",
        -2863.0
      ],
      [
        "▁concern",
        -2864.0
      ],
      [
        "▁estab",
        -2865.0
      ],
      [
        "eren",
        -2866.0
      ],
      [
        "bor",
        -2867.0
      ],
      [
        "IP",
        -2868.0
      ],
      [
        "▁comments",
        -2869.0
      ],
      [
        "aby",
        -2870.0
      ],
      [
        "▁indic",
        -2871.0
      ],
      [
        "▁package",
        -2872.0
      ],
      [
        "▁systems",
        -2873.0
      ],
      [
        "▁accom",
        -2874.0
      ],
      [
        "▁September",
        -2875.0
      ],
      [
        "irth",
        -2876.0
      ],
      [
        "$,",
        -2877.0
      ],
      [
        "▁Val",
        -2878.0
      ],
      [
        "▁Hol",
        -2879.0
      ],
      [
        "$.",
        -2880.0
      ],
      [
        "▁sort",
        -2881.0
      ],
      [
        "▁potential",
        -2882.0
      ],
      [
        "▁ready",
        -2883.0
      ],
      [
        "ovember",
        -2884.0
      ],
      [
        "▁Cr",
        -2885.0
      ],
      [
        "▁pred",
        -2886.0
      ],
      [
        "▁View",
        -2887.0
      ],
      [
        "mas",
        -2888.0
      ],
      [
        "bol",
        -2889.0
      ],
      [
        "▁autom",
        -2890.0
      ],
      [
        "▁Har",
        -2891.0
      ],
      [
        "▁recent",
        -2892.0
      ],
      [
        "▁implement",
        -2893.0
      ],
      [
        "py",
        -2894.0
      ],
      [
        "▁October",
        -2895.0
      ],
      [
        "▁Wind",
        -2896.0
      ],
      [
        "▁obtain",
        -2897.0
      ],
      [
        "▁wall",
        -2898.0
      ],
      [
        "ceed",
        -2899.0
      ],
      [
        "ayout",
        -2900.0
      ],
      [
        "▁includes",
        -2901.0
      ],
      [
        "CH",
        -2902.0
      ],
      [
        "▁regular",
        -2903.0
      ],
      [
        "leased",
        -2904.0
      ],
      [
        "▁Char",
        -2905.0
      ],
      [
        "▁currently",
        -2906.0
      ],
      [
        "item",
        -2907.0
      ],
      [
        "▁January",
        -2908.0
      ],
      [
        "▁Trans",
        -2909.0
      ],
      [
        "▁communic",
        -2910.0
      ],
      [
        "▁pers",
        -2911.0
      ],
      [
        "▁Every",
        -2912.0
      ],
      [
        "hold",
        -2913.0
      ],
      [
        "iam",
        -2914.0
      ],
      [
        "▁fit",
        -2915.0
      ],
      [
        "▁pric",
        -2916.0
      ],
      [
        "ha",
        -2917.0
      ],
      [
        "▁learning",
        -2918.0
      ],
      [
        "lier",
        -2919.0
      ],
      [
        "▁Great",
        -2920.0
      ],
      [
        "▁Review",
        -2921.0
      ],
      [
        "▁config",
        -2922.0
      ],
      [
        "just",
        -2923.0
      ],
      [
        "rup",
        -2924.0
      ],
      [
        "▁neg",
        -2925.0
      ],
      [
        "▁wrong",
        -2926.0
      ],
      [
        "▁screen",
        -2927.0
      ],
      [
        "lin",
        -2928.0
      ],
      [
        "▁Why",
        -2929.0
      ],
      [
        "AME",
        -2930.0
      ],
      [
        "▁ill",
        -2931.0
      ],
      [
        "▁recogn",
        -2932.0
      ],
      [
        "▁received",
        -2933.0
      ],
      [
        "▁sil",
        -2934.0
      ],
      [
        "▁upon",
        -2935.0
      ],
      [
        "public",
        -2936.0
      ],
      [
        "▁Set",
        -2937.0
      ],
      [
        "ync",
        -2938.0
      ],
      [
        "▁PM",
        -2939.0
      ],
      [
        "annel",
        -2940.0
      ],
      [
        "ride",
        -2941.0
      ],
      [
        "▁sens",
        -2942.0
      ],
      [
        "▁deg",
        -2943.0
      ],
      [
        "mm",
        -2944.0
      ],
      [
        "▁Over",
        -2945.0
      ],
      [
        "App",
        -2946.0
      ],
      [
        "())",
        -2947.0
      ],
      [
        "▁Any",
        -2948.0
      ],
      [
        "▁Other",
        -2949.0
      ],
      [
        "▁myself",
        -2950.0
      ],
      [
        "▁connect",
        -2951.0
      ],
      [
        "▁knowledge",
        -2952.0
      ],
      [
        "hib",
        -2953.0
      ],
      [
        "index",
        -2954.0
      ],
      [
        "▁values",
        -2955.0
      ],
      [
        "▁weight",
        -2956.0
      ],
      [
        "cember",
        -2957.0
      ],
      [
        "▁ball",
        -2958.0
      ],
      [
        "▁held",
        -2959.0
      ],
      [
        "ington",
        -2960.0
      ],
      [
        "iqu",
        -2961.0
      ],
      [
        "▁security",
        -2962.0
      ],
      [
        "▁ep",
        -2963.0
      ],
      [
        "▁dat",
        -2964.0
      ],
      [
        "▁additional",
        -2965.0
      ],
      [
        "▁Mus",
        -2966.0
      ],
      [
        "▁Well",
        -2967.0
      ],
      [
        "lements",
        -2968.0
      ],
      [
        "▁upd",
        -2969.0
      ],
      [
        "▁financial",
        -2970.0
      ],
      [
        "dom",
        -2971.0
      ],
      [
        "▁News",
        -2972.0
      ],
      [
        "▁treatment",
        -2973.0
      ],
      [
        "▁Home",
        -2974.0
      ],
      [
        "▁comfort",
        -2975.0
      ],
      [
        "========",
        -2976.0
      ],
      [
        "aves",
        -2977.0
      ],
      [
        "▁Sub",
        -2978.0
      ],
      [
        "▁introdu",
        -2979.0
      ],
      [
        "▁mention",
        -2980.0
      ],
      [
        "ening",
        -2981.0
      ],
      [
        "anch",
        -2982.0
      ],
      [
        "▁brand",
        -2983.0
      ],
      [
        "▁Ac",
        -2984.0
      ],
      [
        "core",
        -2985.0
      ],
      [
        "urb",
        -2986.0
      ],
      [
        "▁collection",
        -2987.0
      ],
      [
        "ressed",
        -2988.0
      ],
      [
        "▁draw",
        -2989.0
      ],
      [
        "▁Hot",
        -2990.0
      ],
      [
        "Context",
        -2991.0
      ],
      [
        "▁Cour",
        -2992.0
      ],
      [
        "bre",
        -2993.0
      ],
      [
        "ado",
        -2994.0
      ],
      [
        "▁related",
        -2995.0
      ],
      [
        "width",
        -2996.0
      ],
      [
        "▁squ",
        -2997.0
      ],
      [
        "▁solution",
        -2998.0
      ],
      [
        "▁Direct",
        -2999.0
      ],
      [
        "▁education",
        -3000.0
      ],
      [
        "▁cases",
        -3001.0
      ],
      [
        "bit",
        -3002.0
      ],
      [
        "point",
        -3003.0
      ],
      [
        "▁Fe",
        -3004.0
      ],
      [
        "▁books",
        -3005.0
      ],
      [
        "▁mix",
        -3006.0
      ],
      [
        "▁Most",
        -3007.0
      ],
      [
        "▁skin",
        -3008.0
      ],
      [
        "nov",
        -3009.0
      ],
      [
        "pace",
        -3010.0
      ],
      [
        "▁£",
        -3011.0
      ],
      [
        "▁default",
        -3012.0
      ],
      [
        "sk",
        -3013.0
      ],
      [
        "го",
        -3014.0
      ],
      [
        "hel",
        -3015.0
      ],
      [
        "▁apply",
        -3016.0
      ],
      [
        "oken",
        -3017.0
      ],
      [
        "▁integr",
        -3018.0
      ],
      [
        "augh",
        -3019.0
      ],
      [
        "Man",
        -3020.0
      ],
      [
        "▁correct",
        -3021.0
      ],
      [
        "apter",
        -3022.0
      ],
      [
        "wise",
        -3023.0
      ],
      [
        "▁opportunity",
        -3024.0
      ],
      [
        "ship",
        -3025.0
      ],
      [
        "▁town",
        -3026.0
      ],
      [
        "arter",
        -3027.0
      ],
      [
        "▁Rem",
        -3028.0
      ],
      [
        "▁Mich",
        -3029.0
      ],
      [
        "▁late",
        -3030.0
      ],
      [
        "▁November",
        -3031.0
      ],
      [
        "▁players",
        -3032.0
      ],
      [
        "▁item",
        -3033.0
      ],
      [
        "where",
        -3034.0
      ],
      [
        "uses",
        -3035.0
      ],
      [
        "▁sche",
        -3036.0
      ],
      [
        "▁sales",
        -3037.0
      ],
      [
        "▁approach",
        -3038.0
      ],
      [
        "adem",
        -3039.0
      ],
      [
        "ellow",
        -3040.0
      ],
      [
        "lim",
        -3041.0
      ],
      [
        "▁lower",
        -3042.0
      ],
      [
        "ournal",
        -3043.0
      ],
      [
        "▁param",
        -3044.0
      ],
      [
        "▁cause",
        -3045.0
      ],
      [
        "▁ideas",
        -3046.0
      ],
      [
        "▁deep",
        -3047.0
      ],
      [
        "▁cool",
        -3048.0
      ],
      [
        "ipment",
        -3049.0
      ],
      [
        "map",
        -3050.0
      ],
      [
        "▁div",
        -3051.0
      ],
      [
        "elebr",
        -3052.0
      ],
      [
        "▁included",
        -3053.0
      ],
      [
        "▁contract",
        -3054.0
      ],
      [
        "▁recently",
        -3055.0
      ],
      [
        "\".",
        -3056.0
      ],
      [
        "reate",
        -3057.0
      ],
      [
        "FF",
        -3058.0
      ],
      [
        "▁woman",
        -3059.0
      ],
      [
        "▁…",
        -3060.0
      ],
      [
        "▁types",
        -3061.0
      ],
      [
        "Request",
        -3062.0
      ],
      [
        "▁separ",
        -3063.0
      ],
      [
        "▁hair",
        -3064.0
      ],
      [
        "▁input",
        -3065.0
      ],
      [
        "▁location",
        -3066.0
      ],
      [
        "ges",
        -3067.0
      ],
      [
        "ocol",
        -3068.0
      ],
      [
        "▁Rel",
        -3069.0
      ],
      [
        "zz",
        -3070.0
      ],
      [
        "▁attack",
        -3071.0
      ],
      [
        "▁round",
        -3072.0
      ],
      [
        "▁Serv",
        -3073.0
      ],
      [
        "aint",
        -3074.0
      ],
      [
        "▁prep",
        -3075.0
      ],
      [
        "ological",
        -3076.0
      ],
      [
        "▁section",
        -3077.0
      ],
      [
        "based",
        -3078.0
      ],
      [
        "LO",
        -3079.0
      ],
      [
        "ibr",
        -3080.0
      ],
      [
        "Path",
        -3081.0
      ],
      [
        "cul",
        -3082.0
      ],
      [
        "▁Best",
        -3083.0
      ],
      [
        "▁Good",
        -3084.0
      ],
      [
        "place",
        -3085.0
      ],
      [
        "▁remember",
        -3086.0
      ],
      [
        "▁hit",
        -3087.0
      ],
      [
        "▁``",
        -3088.0
      ],
      [
        "▁prior",
        -3089.0
      ],
      [
        "▁itself",
        -3090.0
      ],
      [
        "haps",
        -3091.0
      ],
      [
        "color",
        -3092.0
      ],
      [
        "▁designed",
        -3093.0
      ],
      [
        "hood",
        -3094.0
      ],
      [
        "▁America",
        -3095.0
      ],
      [
        "▁language",
        -3096.0
      ],
      [
        "▁morning",
        -3097.0
      ],
      [
        "▁grad",
        -3098.0
      ],
      [
        "▁ensure",
        -3099.0
      ],
      [
        "ре",
        -3100.0
      ],
      [
        "▁nil",
        -3101.0
      ],
      [
        "▁credit",
        -3102.0
      ],
      [
        "soft",
        -3103.0
      ],
      [
        "ague",
        -3104.0
      ],
      [
        "▁answer",
        -3105.0
      ],
      [
        "▁collect",
        -3106.0
      ],
      [
        "▁Net",
        -3107.0
      ],
      [
        "▁ones",
        -3108.0
      ],
      [
        "▁wasn",
        -3109.0
      ],
      [
        "▁conditions",
        -3110.0
      ],
      [
        "uel",
        -3111.0
      ],
      [
        "▁worked",
        -3112.0
      ],
      [
        "▁func",
        -3113.0
      ],
      [
        "PI",
        -3114.0
      ],
      [
        "▁Google",
        -3115.0
      ],
      [
        "▁java",
        -3116.0
      ],
      [
        "Ph",
        -3117.0
      ],
      [
        "▁policy",
        -3118.0
      ],
      [
        "▁dating",
        -3119.0
      ],
      [
        "ero",
        -3120.0
      ],
      [
        "▁standard",
        -3121.0
      ],
      [
        "▁mother",
        -3122.0
      ],
      [
        "▁San",
        -3123.0
      ],
      [
        "As",
        -3124.0
      ],
      [
        "▁feed",
        -3125.0
      ],
      [
        "fil",
        -3126.0
      ],
      [
        "▁lost",
        -3127.0
      ],
      [
        "▁choice",
        -3128.0
      ],
      [
        "▁stri",
        -3129.0
      ],
      [
        "la",
        -3130.0
      ],
      [
        "▁hop",
        -3131.0
      ],
      [
        "vis",
        -3132.0
      ],
      [
        "▁door",
        -3133.0
      ],
      [
        "▁remain",
        -3134.0
      ],
      [
        "▁drive",
        -3135.0
      ],
      [
        "dis",
        -3136.0
      ],
      [
        "▁War",
        -3137.0
      ],
      [
        "eters",
        -3138.0
      ],
      [
        "▁December",
        -3139.0
      ],
      [
        "▁global",
        -3140.0
      ],
      [
        "▁latest",
        -3141.0
      ],
      [
        "▁Book",
        -3142.0
      ],
      [
        "▁built",
        -3143.0
      ],
      [
        "▁heav",
        -3144.0
      ],
      [
        "▁manufact",
        -3145.0
      ],
      [
        "▁throughout",
        -3146.0
      ],
      [
        "Config",
        -3147.0
      ],
      [
        "▁bal",
        -3148.0
      ],
      [
        "▁Sund",
        -3149.0
      ],
      [
        "▁production",
        -3150.0
      ],
      [
        "▁goes",
        -3151.0
      ],
      [
        "▁Ang",
        -3152.0
      ],
      [
        "▁practice",
        -3153.0
      ],
      [
        "▁Ke",
        -3154.0
      ],
      [
        "▁boo",
        -3155.0
      ],
      [
        "▁gets",
        -3156.0
      ],
      [
        "▁Austral",
        -3157.0
      ],
      [
        "}\r",
        -3158.0
      ],
      [
        "?\"",
        -3159.0
      ],
      [
        "▁President",
        -3160.0
      ],
      [
        "▁recommend",
        -3161.0
      ],
      [
        "▁growth",
        -3162.0
      ],
      [
        "▁cand",
        -3163.0
      ],
      [
        "see",
        -3164.0
      ],
      [
        "ribution",
        -3165.0
      ],
      [
        "▁themselves",
        -3166.0
      ],
      [
        "▁Face",
        -3167.0
      ],
      [
        "igation",
        -3168.0
      ],
      [
        "▁written",
        -3169.0
      ],
      [
        "Item",
        -3170.0
      ],
      [
        "▁pull",
        -3171.0
      ],
      [
        "▁bi",
        -3172.0
      ],
      [
        "ming",
        -3173.0
      ],
      [
        "alt",
        -3174.0
      ],
      [
        "ellent",
        -3175.0
      ],
      [
        "▁playing",
        -3176.0
      ],
      [
        "▁hor",
        -3177.0
      ],
      [
        "▁Supp",
        -3178.0
      ],
      [
        "▁hands",
        -3179.0
      ],
      [
        "cd",
        -3180.0
      ],
      [
        "ester",
        -3181.0
      ],
      [
        "▁receive",
        -3182.0
      ],
      [
        "uy",
        -3183.0
      ],
      [
        "▁official",
        -3184.0
      ],
      [
        "▁send",
        -3185.0
      ],
      [
        "▁amazing",
        -3186.0
      ],
      [
        "▁client",
        -3187.0
      ],
      [
        "▁hear",
        -3188.0
      ],
      [
        "ruary",
        -3189.0
      ],
      [
        "▁boy",
        -3190.0
      ],
      [
        "▁License",
        -3191.0
      ],
      [
        "▁Friday",
        -3192.0
      ],
      [
        "▁Business",
        -3193.0
      ],
      [
        "▁release",
        -3194.0
      ],
      [
        "Read",
        -3195.0
      ],
      [
        "▁compon",
        -3196.0
      ],
      [
        "▁son",
        -3197.0
      ],
      [
        "aste",
        -3198.0
      ],
      [
        "▁TV",
        -3199.0
      ],
      [
        "gen",
        -3200.0
      ],
      [
        "▁;",
        -3201.0
      ],
      [
        "}.",
        -3202.0
      ],
      [
        "▁Spec",
        -3203.0
      ],
      [
        ",\\",
        -3204.0
      ],
      [
        "pack",
        -3205.0
      ],
      [
        "▁eyes",
        -3206.0
      ],
      [
        "cher",
        -3207.0
      ],
      [
        "▁quickly",
        -3208.0
      ],
      [
        "atory",
        -3209.0
      ],
      [
        "▁English",
        -3210.0
      ],
      [
        "▁easily",
        -3211.0
      ],
      [
        "mission",
        -3212.0
      ],
      [
        "');",
        -3213.0
      ],
      [
        "▁save",
        -3214.0
      ],
      [
        "▁customer",
        -3215.0
      ],
      [
        "▁maintain",
        -3216.0
      ],
      [
        "ategory",
        -3217.0
      ],
      [
        "▁slow",
        -3218.0
      ],
      [
        "▁Ret",
        -3219.0
      ],
      [
        "▁cy",
        -3220.0
      ],
      [
        "illing",
        -3221.0
      ],
      [
        "▁patients",
        -3222.0
      ],
      [
        "iment",
        -3223.0
      ],
      [
        "▁context",
        -3224.0
      ],
      [
        "itchen",
        -3225.0
      ],
      [
        "▁tried",
        -3226.0
      ],
      [
        "Event",
        -3227.0
      ],
      [
        "▁AM",
        -3228.0
      ],
      [
        "▁Air",
        -3229.0
      ],
      [
        "Service",
        -3230.0
      ],
      [
        "▁rout",
        -3231.0
      ],
      [
        "Size",
        -3232.0
      ],
      [
        "Qu",
        -3233.0
      ],
      [
        "▁circ",
        -3234.0
      ],
      [
        "wood",
        -3235.0
      ],
      [
        "Message",
        -3236.0
      ],
      [
        "▁lives",
        -3237.0
      ],
      [
        "sem",
        -3238.0
      ],
      [
        "▁veh",
        -3239.0
      ],
      [
        "pri",
        -3240.0
      ],
      [
        "▁teac",
        -3241.0
      ],
      [
        "▁interesting",
        -3242.0
      ],
      [
        "aign",
        -3243.0
      ],
      [
        "Map",
        -3244.0
      ],
      [
        "▁Even",
        -3245.0
      ],
      [
        "orge",
        -3246.0
      ],
      [
        "summary",
        -3247.0
      ],
      [
        "Or",
        -3248.0
      ],
      [
        "▁__",
        -3249.0
      ],
      [
        "ube",
        -3250.0
      ],
      [
        "▁behav",
        -3251.0
      ],
      [
        "ondon",
        -3252.0
      ],
      [
        "▁chance",
        -3253.0
      ],
      [
        "▁decision",
        -3254.0
      ],
      [
        "asons",
        -3255.0
      ],
      [
        "▁Brit",
        -3256.0
      ],
      [
        "▁drug",
        -3257.0
      ],
      [
        "ipe",
        -3258.0
      ],
      [
        "Class",
        -3259.0
      ],
      [
        "▁stuff",
        -3260.0
      ],
      [
        "inner",
        -3261.0
      ],
      [
        "OP",
        -3262.0
      ],
      [
        "count",
        -3263.0
      ],
      [
        "▁Inter",
        -3264.0
      ],
      [
        "TR",
        -3265.0
      ],
      [
        "▁Det",
        -3266.0
      ],
      [
        "andom",
        -3267.0
      ],
      [
        "OD",
        -3268.0
      ],
      [
        "initely",
        -3269.0
      ],
      [
        "▁felt",
        -3270.0
      ],
      [
        "ken",
        -3271.0
      ],
      [
        "▁Go",
        -3272.0
      ],
      [
        "▁insurance",
        -3273.0
      ],
      [
        "▁imm",
        -3274.0
      ],
      [
        "▁national",
        -3275.0
      ],
      [
        "bert",
        -3276.0
      ],
      [
        "▁stra",
        -3277.0
      ],
      [
        "▁propos",
        -3278.0
      ],
      [
        "osing",
        -3279.0
      ],
      [
        "▁cho",
        -3280.0
      ],
      [
        "ville",
        -3281.0
      ],
      [
        "▁cross",
        -3282.0
      ],
      [
        "▁driv",
        -3283.0
      ],
      [
        "▁Service",
        -3284.0
      ],
      [
        "▁platform",
        -3285.0
      ],
      [
        "irit",
        -3286.0
      ],
      [
        "ores",
        -3287.0
      ],
      [
        "icon",
        -3288.0
      ],
      [
        "oper",
        -3289.0
      ],
      [
        "▁->",
        -3290.0
      ],
      [
        "acing",
        -3291.0
      ],
      [
        "▁update",
        -3292.0
      ],
      [
        "lock",
        -3293.0
      ],
      [
        "CC",
        -3294.0
      ],
      [
        "▁avoid",
        -3295.0
      ],
      [
        "▁UK",
        -3296.0
      ],
      [
        "efore",
        -3297.0
      ],
      [
        "▁map",
        -3298.0
      ],
      [
        "▁Since",
        -3299.0
      ],
      [
        "Array",
        -3300.0
      ],
      [
        "▁RE",
        -3301.0
      ],
      [
        "equation",
        -3302.0
      ],
      [
        "▁activities",
        -3303.0
      ],
      [
        "▁sus",
        -3304.0
      ],
      [
        "ework",
        -3305.0
      ],
      [
        "▁serious",
        -3306.0
      ],
      [
        "ults",
        -3307.0
      ],
      [
        "▁multiple",
        -3308.0
      ],
      [
        "▁Inc",
        -3309.0
      ],
      [
        "▁mag",
        -3310.0
      ],
      [
        "ocr",
        -3311.0
      ],
      [
        "▁attempt",
        -3312.0
      ],
      [
        "▁summer",
        -3313.0
      ],
      [
        "▁sun",
        -3314.0
      ],
      [
        "▁commit",
        -3315.0
      ],
      [
        "▁thinking",
        -3316.0
      ],
      [
        "oad",
        -3317.0
      ],
      [
        "▁leaders",
        -3318.0
      ],
      [
        "▁tour",
        -3319.0
      ],
      [
        "▁gives",
        -3320.0
      ],
      [
        "cil",
        -3321.0
      ],
      [
        "▁IS",
        -3322.0
      ],
      [
        "▁condition",
        -3323.0
      ],
      [
        "▁average",
        -3324.0
      ],
      [
        "▁files",
        -3325.0
      ],
      [
        "▁meeting",
        -3326.0
      ],
      [
        "▁surpr",
        -3327.0
      ],
      [
        "▁medical",
        -3328.0
      ],
      [
        "▁skills",
        -3329.0
      ],
      [
        "▁levels",
        -3330.0
      ],
      [
        "▁goal",
        -3331.0
      ],
      [
        "vey",
        -3332.0
      ],
      [
        "atives",
        -3333.0
      ],
      [
        "▁park",
        -3334.0
      ],
      [
        "▁sell",
        -3335.0
      ],
      [
        "▁favorite",
        -3336.0
      ],
      [
        "':",
        -3337.0
      ],
      [
        "▁necessary",
        -3338.0
      ],
      [
        "▁immedi",
        -3339.0
      ],
      [
        "▁prevent",
        -3340.0
      ],
      [
        "An",
        -3341.0
      ],
      [
        "▁Associ",
        -3342.0
      ],
      [
        "▁analysis",
        -3343.0
      ],
      [
        "▁projects",
        -3344.0
      ],
      [
        "▁parents",
        -3345.0
      ],
      [
        "▁blood",
        -3346.0
      ],
      [
        "▁February",
        -3347.0
      ],
      [
        "▁Satur",
        -3348.0
      ],
      [
        "▁extrem",
        -3349.0
      ],
      [
        "▁и",
        -3350.0
      ],
      [
        "ida",
        -3351.0
      ],
      [
        "lient",
        -3352.0
      ],
      [
        "▁ability",
        -3353.0
      ],
      [
        "band",
        -3354.0
      ],
      [
        "▁former",
        -3355.0
      ],
      [
        "stance",
        -3356.0
      ],
      [
        "▁Phot",
        -3357.0
      ],
      [
        "▁Down",
        -3358.0
      ],
      [
        "▁Techn",
        -3359.0
      ],
      [
        "md",
        -3360.0
      ],
      [
        "Log",
        -3361.0
      ],
      [
        "ocks",
        -3362.0
      ],
      [
        "▁student",
        -3363.0
      ],
      [
        "▁plant",
        -3364.0
      ],
      [
        "men",
        -3365.0
      ],
      [
        "argin",
        -3366.0
      ],
      [
        "ography",
        -3367.0
      ],
      [
        "▁cat",
        -3368.0
      ],
      [
        "';",
        -3369.0
      ],
      [
        "▁device",
        -3370.0
      ],
      [
        "mark",
        -3371.0
      ],
      [
        "like",
        -3372.0
      ],
      [
        "▁involved",
        -3373.0
      ],
      [
        "urt",
        -3374.0
      ],
      [
        "▁inj",
        -3375.0
      ],
      [
        "Form",
        -3376.0
      ],
      [
        "ements",
        -3377.0
      ],
      [
        "▁fresh",
        -3378.0
      ],
      [
        "ught",
        -3379.0
      ],
      [
        "▁Top",
        -3380.0
      ],
      [
        "▁speed",
        -3381.0
      ],
      [
        "▁die",
        -3382.0
      ],
      [
        "▁о",
        -3383.0
      ],
      [
        "omen",
        -3384.0
      ],
      [
        "▁groups",
        -3385.0
      ],
      [
        "▁protect",
        -3386.0
      ],
      [
        "ho",
        -3387.0
      ],
      [
        "▁Web",
        -3388.0
      ],
      [
        "istry",
        -3389.0
      ],
      [
        "▁fine",
        -3390.0
      ],
      [
        "attle",
        -3391.0
      ],
      [
        "zy",
        -3392.0
      ],
      [
        "▁wish",
        -3393.0
      ],
      [
        "▁effic",
        -3394.0
      ],
      [
        "▁Germ",
        -3395.0
      ],
      [
        "hern",
        -3396.0
      ],
      [
        "Index",
        -3397.0
      ],
      [
        "uit",
        -3398.0
      ],
      [
        "▁Afric",
        -3399.0
      ],
      [
        "otes",
        -3400.0
      ],
      [
        "more",
        -3401.0
      ],
      [
        "rix",
        -3402.0
      ],
      [
        "\\\\",
        -3403.0
      ],
      [
        "But",
        -3404.0
      ],
      [
        "▁computer",
        -3405.0
      ],
      [
        "▁saying",
        -3406.0
      ],
      [
        "▁movie",
        -3407.0
      ],
      [
        "oul",
        -3408.0
      ],
      [
        "exp",
        -3409.0
      ],
      [
        "▁International",
        -3410.0
      ],
      [
        "▁parts",
        -3411.0
      ],
      [
        "For",
        -3412.0
      ],
      [
        "iring",
        -3413.0
      ],
      [
        "mathcal",
        -3414.0
      ],
      [
        "http",
        -3415.0
      ],
      [
        "eal",
        -3416.0
      ],
      [
        "ford",
        -3417.0
      ],
      [
        "▁sites",
        -3418.0
      ],
      [
        "▁roll",
        -3419.0
      ],
      [
        "▁rights",
        -3420.0
      ],
      [
        "anger",
        -3421.0
      ],
      [
        "df",
        -3422.0
      ],
      [
        "▁attention",
        -3423.0
      ],
      [
        "▁gave",
        -3424.0
      ],
      [
        "▁normal",
        -3425.0
      ],
      [
        "sec",
        -3426.0
      ],
      [
        "((",
        -3427.0
      ],
      [
        "▁viol",
        -3428.0
      ],
      [
        "▁length",
        -3429.0
      ],
      [
        "▁wood",
        -3430.0
      ],
      [
        "▁arch",
        -3431.0
      ],
      [
        "▁bus",
        -3432.0
      ],
      [
        "▁THE",
        -3433.0
      ],
      [
        "▁allows",
        -3434.0
      ],
      [
        "▁decided",
        -3435.0
      ],
      [
        "came",
        -3436.0
      ],
      [
        "iding",
        -3437.0
      ],
      [
        "▁safe",
        -3438.0
      ],
      [
        "idered",
        -3439.0
      ],
      [
        "▁bank",
        -3440.0
      ],
      [
        "aries",
        -3441.0
      ],
      [
        "▁completely",
        -3442.0
      ],
      [
        "This",
        -3443.0
      ],
      [
        "sequ",
        -3444.0
      ],
      [
        "function",
        -3445.0
      ],
      [
        "][",
        -3446.0
      ],
      [
        "▁player",
        -3447.0
      ],
      [
        "▁decl",
        -3448.0
      ],
      [
        "▁looked",
        -3449.0
      ],
      [
        "▁af",
        -3450.0
      ],
      [
        "ULL",
        -3451.0
      ],
      [
        "▁cup",
        -3452.0
      ],
      [
        "▁touch",
        -3453.0
      ],
      [
        "▁knew",
        -3454.0
      ],
      [
        "▁mer",
        -3455.0
      ],
      [
        "▁detail",
        -3456.0
      ],
      [
        "lib",
        -3457.0
      ],
      [
        "▁complex",
        -3458.0
      ],
      [
        "▁Work",
        -3459.0
      ],
      [
        "isf",
        -3460.0
      ],
      [
        "▁King",
        -3461.0
      ],
      [
        "▁Yes",
        -3462.0
      ],
      [
        "ares",
        -3463.0
      ],
      [
        "▁heard",
        -3464.0
      ],
      [
        "rought",
        -3465.0
      ],
      [
        "comes",
        -3466.0
      ],
      [
        "▁China",
        -3467.0
      ],
      [
        "On",
        -3468.0
      ],
      [
        "▁index",
        -3469.0
      ],
      [
        "ris",
        -3470.0
      ],
      [
        "nown",
        -3471.0
      ],
      [
        "wor",
        -3472.0
      ],
      [
        "section",
        -3473.0
      ],
      [
        "length",
        -3474.0
      ],
      [
        "▁challeng",
        -3475.0
      ],
      [
        "▁vac",
        -3476.0
      ],
      [
        "▁David",
        -3477.0
      ],
      [
        "▁career",
        -3478.0
      ],
      [
        "amic",
        -3479.0
      ],
      [
        "apan",
        -3480.0
      ],
      [
        "He",
        -3481.0
      ],
      [
        "▁effective",
        -3482.0
      ],
      [
        "▁dire",
        -3483.0
      ],
      [
        "▁Class",
        -3484.0
      ],
      [
        "ius",
        -3485.0
      ],
      [
        "▁modern",
        -3486.0
      ],
      [
        "▁Street",
        -3487.0
      ],
      [
        "ael",
        -3488.0
      ],
      [
        "▁speak",
        -3489.0
      ],
      [
        "ara",
        -3490.0
      ],
      [
        "Is",
        -3491.0
      ],
      [
        "abase",
        -3492.0
      ],
      [
        "▁fair",
        -3493.0
      ],
      [
        "NAME",
        -3494.0
      ],
      [
        "change",
        -3495.0
      ],
      [
        "▁Saturday",
        -3496.0
      ],
      [
        "▁began",
        -3497.0
      ],
      [
        "▁Sunday",
        -3498.0
      ],
      [
        "▁resources",
        -3499.0
      ],
      [
        "▁output",
        -3500.0
      ],
      [
        "▁machine",
        -3501.0
      ],
      [
        "izes",
        -3502.0
      ],
      [
        "ounds",
        -3503.0
      ],
      [
        "IV",
        -3504.0
      ],
      [
        "▁Mond",
        -3505.0
      ],
      [
        "▁dark",
        -3506.0
      ],
      [
        "▁Oh",
        -3507.0
      ],
      [
        "▁London",
        -3508.0
      ],
      [
        "▁fight",
        -3509.0
      ],
      [
        "▁became",
        -3510.0
      ],
      [
        "▁celebr",
        -3511.0
      ],
      [
        "▁piece",
        -3512.0
      ],
      [
        "▁##",
        -3513.0
      ],
      [
        "icated",
        -3514.0
      ],
      [
        "You",
        -3515.0
      ],
      [
        "▁maybe",
        -3516.0
      ],
      [
        "arden",
        -3517.0
      ],
      [
        "duc",
        -3518.0
      ],
      [
        "des",
        -3519.0
      ],
      [
        "verse",
        -3520.0
      ],
      [
        "▁Av",
        -3521.0
      ],
      [
        "▁sale",
        -3522.0
      ],
      [
        "▁Russ",
        -3523.0
      ],
      [
        "▁clients",
        -3524.0
      ],
      [
        "▁wide",
        -3525.0
      ],
      [
        "▁marketing",
        -3526.0
      ],
      [
        "abled",
        -3527.0
      ],
      [
        "chan",
        -3528.0
      ],
      [
        "enge",
        -3529.0
      ],
      [
        "▁Del",
        -3530.0
      ],
      [
        "ibly",
        -3531.0
      ],
      [
        "De",
        -3532.0
      ],
      [
        "alpha",
        -3533.0
      ],
      [
        "▁international",
        -3534.0
      ],
      [
        "bum",
        -3535.0
      ],
      [
        "ersion",
        -3536.0
      ],
      [
        "cover",
        -3537.0
      ],
      [
        "▁catch",
        -3538.0
      ],
      [
        "▁Port",
        -3539.0
      ],
      [
        "▁programs",
        -3540.0
      ],
      [
        "enty",
        -3541.0
      ],
      [
        "▁located",
        -3542.0
      ],
      [
        "▁tal",
        -3543.0
      ],
      [
        "▁plans",
        -3544.0
      ],
      [
        "▁situation",
        -3545.0
      ],
      [
        "▁huge",
        -3546.0
      ],
      [
        "▁trust",
        -3547.0
      ],
      [
        "All",
        -3548.0
      ],
      [
        "ancy",
        -3549.0
      ],
      [
        "Over",
        -3550.0
      ],
      [
        "▁political",
        -3551.0
      ],
      [
        "▁directly",
        -3552.0
      ],
      [
        "comp",
        -3553.0
      ],
      [
        "ри",
        -3554.0
      ],
      [
        "Ser",
        -3555.0
      ],
      [
        "▁dise",
        -3556.0
      ],
      [
        "build",
        -3557.0
      ],
      [
        "▁positive",
        -3558.0
      ],
      [
        "](",
        -3559.0
      ],
      [
        "▁starting",
        -3560.0
      ],
      [
        "Field",
        -3561.0
      ],
      [
        "▁green",
        -3562.0
      ],
      [
        "▁er",
        -3563.0
      ],
      [
        "▁fa",
        -3564.0
      ],
      [
        "▁limit",
        -3565.0
      ],
      [
        "ret",
        -3566.0
      ],
      [
        "▁instance",
        -3567.0
      ],
      [
        "ML",
        -3568.0
      ],
      [
        "▁consist",
        -3569.0
      ],
      [
        "▁jud",
        -3570.0
      ],
      [
        "▁Facebook",
        -3571.0
      ],
      [
        "▁Price",
        -3572.0
      ],
      [
        "▁enter",
        -3573.0
      ],
      [
        "▁Posted",
        -3574.0
      ],
      [
        "▁himself",
        -3575.0
      ],
      [
        "Le",
        -3576.0
      ],
      [
        "▁Many",
        -3577.0
      ],
      [
        "icks",
        -3578.0
      ],
      [
        "▁Law",
        -3579.0
      ],
      [
        "Node",
        -3580.0
      ],
      [
        "▁exactly",
        -3581.0
      ],
      [
        "Code",
        -3582.0
      ],
      [
        "▁sec",
        -3583.0
      ],
      [
        "▁Ob",
        -3584.0
      ],
      [
        "▁Coun",
        -3585.0
      ],
      [
        "▁Sen",
        -3586.0
      ],
      [
        "▁Check",
        -3587.0
      ],
      [
        "ва",
        -3588.0
      ],
      [
        "ico",
        -3589.0
      ],
      [
        "▁photos",
        -3590.0
      ],
      [
        "Hand",
        -3591.0
      ],
      [
        "iber",
        -3592.0
      ],
      [
        "▁Look",
        -3593.0
      ],
      [
        "rote",
        -3594.0
      ],
      [
        "▁▁▁▁▁▁▁▁▁",
        -3595.0
      ],
      [
        "}(",
        -3596.0
      ],
      [
        "icrosoft",
        -3597.0
      ],
      [
        "link",
        -3598.0
      ],
      [
        "▁sleep",
        -3599.0
      ],
      [
        "▁reported",
        -3600.0
      ],
      [
        "elcome",
        -3601.0
      ],
      [
        "▁sometimes",
        -3602.0
      ],
      [
        "▁Time",
        -3603.0
      ],
      [
        "****************",
        -3604.0
      ],
      [
        "▁II",
        -3605.0
      ],
      [
        "udget",
        -3606.0
      ],
      [
        "▁Like",
        -3607.0
      ],
      [
        "▁absol",
        -3608.0
      ],
      [
        "rupt",
        -3609.0
      ],
      [
        "▁Ben",
        -3610.0
      ],
      [
        "▁note",
        -3611.0
      ],
      [
        "▁Department",
        -3612.0
      ],
      [
        "ategy",
        -3613.0
      ],
      [
        "roller",
        -3614.0
      ],
      [
        "▁gold",
        -3615.0
      ],
      [
        "▁benefits",
        -3616.0
      ],
      [
        "ospital",
        -3617.0
      ],
      [
        "▁convers",
        -3618.0
      ],
      [
        "uffer",
        -3619.0
      ],
      [
        "▁leading",
        -3620.0
      ],
      [
        "▁shown",
        -3621.0
      ],
      [
        "CE",
        -3622.0
      ],
      [
        "▁court",
        -3623.0
      ],
      [
        "▁Design",
        -3624.0
      ],
      [
        "aches",
        -3625.0
      ],
      [
        "▁mess",
        -3626.0
      ],
      [
        "▁Group",
        -3627.0
      ],
      [
        "▁India",
        -3628.0
      ],
      [
        "▁considered",
        -3629.0
      ],
      [
        "ederal",
        -3630.0
      ],
      [
        "▁costs",
        -3631.0
      ],
      [
        "reci",
        -3632.0
      ],
      [
        "▁server",
        -3633.0
      ],
      [
        "Def",
        -3634.0
      ],
      [
        "▁images",
        -3635.0
      ],
      [
        "▁Public",
        -3636.0
      ],
      [
        "}^",
        -3637.0
      ],
      [
        "▁sold",
        -3638.0
      ],
      [
        "▁giving",
        -3639.0
      ],
      [
        "▁mid",
        -3640.0
      ],
      [
        "gar",
        -3641.0
      ],
      [
        "▁Use",
        -3642.0
      ],
      [
        "▁variety",
        -3643.0
      ],
      [
        "._",
        -3644.0
      ],
      [
        "▁charg",
        -3645.0
      ],
      [
        "elta",
        -3646.0
      ],
      [
        "acity",
        -3647.0
      ],
      [
        "▁stock",
        -3648.0
      ],
      [
        "▁Open",
        -3649.0
      ],
      [
        "▁certainly",
        -3650.0
      ],
      [
        "▁Green",
        -3651.0
      ],
      [
        "▁emer",
        -3652.0
      ],
      [
        "▁encour",
        -3653.0
      ],
      [
        "▁White",
        -3654.0
      ],
      [
        "sych",
        -3655.0
      ],
      [
        "])",
        -3656.0
      ],
      [
        "Des",
        -3657.0
      ],
      [
        "▁width",
        -3658.0
      ],
      [
        "▁qual",
        -3659.0
      ],
      [
        "▁difference",
        -3660.0
      ],
      [
        "Al",
        -3661.0
      ],
      [
        "trans",
        -3662.0
      ],
      [
        "▁Dist",
        -3663.0
      ],
      [
        "▁Def",
        -3664.0
      ],
      [
        "itude",
        -3665.0
      ],
      [
        "doc",
        -3666.0
      ],
      [
        "▁ten",
        -3667.0
      ],
      [
        "▁emb",
        -3668.0
      ],
      [
        "▁turned",
        -3669.0
      ],
      [
        "▁assert",
        -3670.0
      ],
      [
        "▁Ref",
        -3671.0
      ],
      [
        "▁status",
        -3672.0
      ],
      [
        "▁Love",
        -3673.0
      ],
      [
        "то",
        -3674.0
      ],
      [
        "▁mobile",
        -3675.0
      ],
      [
        "▁Paul",
        -3676.0
      ],
      [
        "ooth",
        -3677.0
      ],
      [
        "ui",
        -3678.0
      ],
      [
        "▁Tod",
        -3679.0
      ],
      [
        "▁countries",
        -3680.0
      ],
      [
        "▁About",
        -3681.0
      ],
      [
        "▁Services",
        -3682.0
      ],
      [
        "oms",
        -3683.0
      ],
      [
        "▁picture",
        -3684.0
      ],
      [
        "▁states",
        -3685.0
      ],
      [
        "resp",
        -3686.0
      ],
      [
        "▁daily",
        -3687.0
      ],
      [
        "gs",
        -3688.0
      ],
      [
        "▁pattern",
        -3689.0
      ],
      [
        "▁initial",
        -3690.0
      ],
      [
        "hand",
        -3691.0
      ],
      [
        "config",
        -3692.0
      ],
      [
        "Of",
        -3693.0
      ],
      [
        "▁definitely",
        -3694.0
      ],
      [
        "▁Jack",
        -3695.0
      ],
      [
        "ga",
        -3696.0
      ],
      [
        "ald",
        -3697.0
      ],
      [
        "▁Test",
        -3698.0
      ],
      [
        "mercial",
        -3699.0
      ],
      [
        "amily",
        -3700.0
      ],
      [
        "▁Calif",
        -3701.0
      ],
      [
        "▁Dem",
        -3702.0
      ],
      [
        "▁pm",
        -3703.0
      ],
      [
        "▁Prof",
        -3704.0
      ],
      [
        "▁vict",
        -3705.0
      ],
      [
        "▁rev",
        -3706.0
      ],
      [
        "irtual",
        -3707.0
      ],
      [
        "ishing",
        -3708.0
      ],
      [
        "▁dro",
        -3709.0
      ],
      [
        "▁window",
        -3710.0
      ],
      [
        "▁suff",
        -3711.0
      ],
      [
        "▁tools",
        -3712.0
      ],
      [
        "▁tim",
        -3713.0
      ],
      [
        "▁dead",
        -3714.0
      ],
      [
        "Ent",
        -3715.0
      ],
      [
        "▁band",
        -3716.0
      ],
      [
        "▁Wash",
        -3717.0
      ],
      [
        "sl",
        -3718.0
      ],
      [
        "▁Data",
        -3719.0
      ],
      [
        "▁streng",
        -3720.0
      ],
      [
        "▁CO",
        -3721.0
      ],
      [
        "ли",
        -3722.0
      ],
      [
        "▁Ant",
        -3723.0
      ],
      [
        "uate",
        -3724.0
      ],
      [
        "▁```",
        -3725.0
      ],
      [
        "▁Christmas",
        -3726.0
      ],
      [
        "sole",
        -3727.0
      ],
      [
        "▁effects",
        -3728.0
      ],
      [
        "▁played",
        -3729.0
      ],
      [
        "▁published",
        -3730.0
      ],
      [
        "osition",
        -3731.0
      ],
      [
        "pty",
        -3732.0
      ],
      [
        "▁thanks",
        -3733.0
      ],
      [
        "edding",
        -3734.0
      ],
      [
        "ambda",
        -3735.0
      ],
      [
        "▁Mor",
        -3736.0
      ],
      [
        "▁Monday",
        -3737.0
      ],
      [
        "inding",
        -3738.0
      ],
      [
        "▁observ",
        -3739.0
      ],
      [
        "With",
        -3740.0
      ],
      [
        "▁Product",
        -3741.0
      ],
      [
        "▁capt",
        -3742.0
      ],
      [
        "erve",
        -3743.0
      ],
      [
        "BC",
        -3744.0
      ],
      [
        "▁neigh",
        -3745.0
      ],
      [
        "▁()",
        -3746.0
      ],
      [
        "▁Last",
        -3747.0
      ],
      [
        "▁finally",
        -3748.0
      ],
      [
        "▁Cur",
        -3749.0
      ],
      [
        "aly",
        -3750.0
      ],
      [
        "▁purchase",
        -3751.0
      ],
      [
        "yond",
        -3752.0
      ],
      [
        "ato",
        -3753.0
      ],
      [
        "▁Mem",
        -3754.0
      ],
      [
        "EO",
        -3755.0
      ],
      [
        "▁Sol",
        -3756.0
      ],
      [
        "ка",
        -3757.0
      ],
      [
        "Response",
        -3758.0
      ],
      [
        "▁Wed",
        -3759.0
      ],
      [
        "▁Rec",
        -3760.0
      ],
      [
        "▁liter",
        -3761.0
      ],
      [
        "▁valid",
        -3762.0
      ],
      [
        "▁Back",
        -3763.0
      ],
      [
        "▁hour",
        -3764.0
      ],
      [
        "lied",
        -3765.0
      ],
      [
        "rang",
        -3766.0
      ],
      [
        "za",
        -3767.0
      ],
      [
        "▁campaign",
        -3768.0
      ],
      [
        "▁Year",
        -3769.0
      ],
      [
        "ka",
        -3770.0
      ],
      [
        "mail",
        -3771.0
      ],
      [
        "▁ST",
        -3772.0
      ],
      [
        "▁influ",
        -3773.0
      ],
      [
        "api",
[...]
